{"version":"1.0","truncation":null,"padding":null,"added_tokens":[{"id":0,"special":true,"content":"<unk>","single_word":false,"lstrip":false,"rstrip":false,"normalized":false}],"normalizer":null,"pre_tokenizer":{"type":"WhitespaceSplit"},"post_processor":null,"decoder":{"type":"BPEDecoder","suffix":"</w>"},"model":{"type":"BPE","dropout":null,"unk_token":null,"continuing_subword_prefix":null,"end_of_word_suffix":"</w>","vocab":{"<unk>":0,"!":1,"\"":2,"'":3,"(":4,")":5,"*":6,",":7,"-":8,".":9,"/":10,"0":11,"1":12,"2":13,"3":14,"4":15,"5":16,"6":17,"7":18,"8":19,"9":20,":":21,";":22,">":23,"?":24,"[":25,"]":26,"a":27,"b":28,"c":29,"d":30,"e":31,"f":32,"g":33,"h":34,"i":35,"j":36,"k":37,"l":38,"m":39,"n":40,"o":41,"p":42,"q":43,"r":44,"s":45,"t":46,"u":47,"v":48,"w":49,"x":50,"y":51,"z":52,"à":53,"á":54,"â":55,"ä":56,"è":57,"é":58,"ê":59,"ë":60,"ì":61,"í":62,"î":63,"ï":64,"ò":65,"ó":66,"ô":67,"ö":68,"ù":69,"ú":70,"—":71,"e</w>":72,"y</w>":73,"n</w>":74,"t</w>":75,"f</w>":76,"k</w>":77,"w</w>":78,"d</w>":79,"r</w>":80,"g</w>":81,"s</w>":82,"m</w>":83,"l</w>":84,"i</w>":85,"j</w>":86,"p</w>":87,"u</w>":88,"'</w>":89,"a</w>":90,"o</w>":91,"h</w>":92,"-</w>":93,"c</w>":94,"b</w>":95,"z</w>":96,".</w>":97,"8</w>":98,"é</w>":99,"—</w>":100,"â</w>":101,"5</w>":102,"ê</w>":103,"ô</w>":104,",</w>":105,"0</w>":106,"*</w>":107,"v</w>":108,"4</w>":109,"è</w>":110,"ò</w>":111,"[</w>":112,"ë</w>":113,"!</w>":114,"à</w>":115,";</w>":116,"ú</w>":117,"\"</w>":118,"></w>":119,"1</w>":120,"9</w>":121,"?</w>":122,"á</w>":123,"î</w>":124,"2</w>":125,":</w>":126,"ö</w>":127,"ó</w>":128,"ù</w>":129,"]</w>":130,"(</w>":131,")</w>":132,"6</w>":133,"3</w>":134,"en</w>":135,"aa":136,"er</w>":137,"er":138,"de</w>":139,"he":140,"da":141,"oo":142,"ie":143,"wa":144,"oa":145,"st":146,"en":147,"ch":148,"ge":149,"'t</w>":150,"an</w>":151,"dat</w>":152,"ie</w>":153,"ij":154,"it</w>":155,"in</w>":156,"aar</w>":157,"oe":158,"an":159,"on":160,"we":161,"in":162,"ij</w>":163,"is</w>":164,"ik</w>":165,"het</w>":166,"ze</w>":167,"le":168,"te</w>":169,"van</w>":170,"gen</w>":171,"ou":172,"'n</w>":173,"je</w>":174,"ien</w>":175,"me":176,"ze":177,"be":178,"op</w>":179,"ur</w>":180,"no":181,"al":182,"ver":183,"re":184,"der</w>":185,"den</w>":186,"ha":187,"een</w>":188,"wat</w>":189,"de":190,"oar</w>":191,"ten</w>":192,"st</w>":193,"om":194,"nie":195,"to":196,"sch":197,"ne":198,"ken</w>":199,"om</w>":200,"el":201,"cht</w>":202,"aan</w>":203,"na":204,"ch</w>":205,"la":206,"do":207,"was</w>":208,"aar":209,"niet</w>":210,"ve":211,"ui":212,"die</w>":213,"hij</w>":214,"maar</w>":215,"..</w>":216,"zo":217,"vr":218,"za":219,"ur":220,"ven</w>":221,"kt</w>":222,"wi":223,"...</w>":224,"oor</w>":225,"or":226,"gr":227,"der":228,"as</w>":229,"met</w>":230,"aan":231,"op":232,"nog</w>":233,"ook</w>":234,"wel</w>":235,"ru":236,"of</w>":237,"moe":238,"ol":239,"zo</w>":240,"dan</w>":241,"cht":242,"ver</w>":243,"weer</w>":244,"oor":245,"kom":246,"el</w>":247,"mit</w>":248,"ijn</w>":249,"nou</w>":250,"gt</w>":251,"nait</w>":252,"tje</w>":253,"ier</w>":254,"bo":255,"te":256,"heur</w>":257,"ra":258,"ke</w>":259,"ma":260,"end</w>":261,"moar</w>":262,"haar</w>":263,"nen</w>":264,"aal</w>":265,"li":266,"zi":267,"di":268,"lie":269,"over</w>":270,"ga":271,"ke":272,"ni":273,"sp":274,"zien</w>":275,"len</w>":276,"br":277,"jo":278,"toch</w>":279,"un":280,"al</w>":281,"ft</w>":282,"voor</w>":283,"als</w>":284,"ja</w>":285,"dr":286,"le</w>":287,"lij":288,"nu</w>":289,"mo":290,"lan":291,"lu":292,"hier</w>":293,"ber":294,"man</w>":295,"men</w>":296,"veur</w>":297,"han":298,"es</w>":299,"hu":300,"ien":301,"ho":302,"ge</w>":303,"pen</w>":304,"gen":305,"bij</w>":306,"men":307,"ond</w>":308,"jon":309,"aat</w>":310,"zu":311,"ter</w>":312,"me</w>":313,"dei</w>":314,"ing</w>":315,"wer":316,"zijn</w>":317,"ste</w>":318,"z'n</w>":319,"kr":320,"heb</w>":321,"had</w>":322,"daar</w>":323,"vrou":324,"naar</w>":325,"ar":326,"ko":327,"komt</w>":328,"id</w>":329,"bie</w>":330,"doe</w>":331,"tr":332,"sen</w>":333,"kwa":334,"'k</w>":335,"ben</w>":336,"hem</w>":337,"va":338,"wor":339,"ts</w>":340,"doar</w>":341,"ied</w>":342,"alle":343,"oet</w>":344,"ks</w>":345,"mie</w>":346,"kl":347,"du":348,"d'":349,"meer</w>":350,"ker":351,"ig</w>":352,"dij</w>":353,"uit</w>":354,"wil</w>":355,"tru":356,"ster</w>":357,"eer":358,"hai</w>":359,"hom</w>":360,"zen</w>":361,"il":362,"dag</w>":363,"loo":364,"waar":365,"ggen</w>":366,"hoe":367,"ert</w>":368,"deur</w>":369,"dt</w>":370,"berend</w>":371,"vrouw</w>":372,"pt</w>":373,"aal":374,"ste":375,"man":376,"mer":377,"ol</w>":378,"geen</w>":379,"dou</w>":380,"oud</w>":381,"wee":382,"acht":383,"che":384,"mien</w>":385,"ka":386,"ken":387,"pa":388,"win":389,"wan":390,"heb":391,"hoo":392,"den":393,"ree":394,"tij":395,"il</w>":396,"ter":397,"ker</w>":398,"pr":399,"uw</w>":400,"we</w>":401,"eft</w>":402,"haar":403,"ooit</w>":404,"mi":405,"nee</w>":406,"tegen</w>":407,"tied</w>":408,"d'r</w>":409,"ren</w>":410,"sl":411,"chten</w>":412,"leven</w>":413,"doo":414,"gel":415,"oan</w>":416,"toen</w>":417,"boer</w>":418,"kken</w>":419,"ster":420,"tijd</w>":421,"ders</w>":422,"wil":423,"ul":424,"dde</w>":425,"bl":426,"niks</w>":427,"lee":428,"ven":429,"ger":430,"goe":431,"ons</w>":432,"sta":433,"stu":434,"eld</w>":435,"wie":436,"wie</w>":437,"zee</w>":438,"sche":439,"moet</w>":440,"gain</w>":441,"door</w>":442,"kwam</w>":443,"kin":444,"mor</w>":445,"tten</w>":446,"net</w>":447,"zich</w>":448,"waar</w>":449,"onder</w>":450,"ôr</w>":451,"zoo</w>":452,"over":453,"lijk</w>":454,"nooit</w>":455,"str":456,"jij</w>":457,"komen</w>":458,"maal</w>":459,"tu":460,"zou</w>":461,"kan</w>":462,"zeggen</w>":463,"mou":464,"heeft</w>":465,"jes</w>":466,"moa":467,"m'n</w>":468,"noar</w>":469,"open</w>":470,"want</w>":471,"ff":472,"zei</w>":473,"goud</w>":474,"oa</w>":475,"ba":476,"th":477,"weg</w>":478,"zegt</w>":479,"kon</w>":480,"zel":481,"hebben</w>":482,"zeg</w>":483,"hoe</w>":484,"eren</w>":485,"har":486,"kle":487,"kij":488,"ör":489,"moo":490,"jan</w>":491,"voor":492,"'s</w>":493,"even</w>":494,"sla":495,"hou</w>":496,"kan":497,"goed</w>":498,"gs</w>":499,"tre":500,"oar":501,"maa":502,"lo":503,"ben":504,"vo":505,"'es</w>":506,"loa":507,"ds</w>":508,"kel":509,"ger</w>":510,"daô</w>":511,"trudaô</w>":512,"ais</w>":513,"kte</w>":514,"ingen</w>":515,"beg":516,"zat</w>":517,"fd</w>":518,"fde</w>":519,"zel</w>":520,"tou</w>":521,"wordt</w>":522,"laan":523,"nes</w>":524,"uren</w>":525,"huis</w>":526,"alles</w>":527,"zal</w>":528,"vol":529,"ne</w>":530,"woar</w>":531,"zij</w>":532,"wij":533,"ok</w>":534,"wo":535,"achter</w>":536,"pp":537,"'ie</w>":538,"af</w>":539,"dien</w>":540,"bei":541,"zai</w>":542,"aait</w>":543,"geert</w>":544,"ging</w>":545,"ri":546,"zit</w>":547,"dig</w>":548,"bou":549,"een":550,"hannes</w>":551,"rie":552,"ja":553,"tot</w>":554,"lui":555,"moeder</w>":556,"din</w>":557,"ogen</w>":558,"johannes</w>":559,"hoes</w>":560,"bin":561,"gaan</w>":562,"chte</w>":563,"haarm</w>":564,"dden</w>":565,"gaat</w>":566,"van":567,"af":568,"jong</w>":569,"im":570,"laa":571,"onder":572,"bel</w>":573,"nich</w>":574,"ain</w>":575,"dom":576,"kom</w>":577,"woor":578,"tel":579,"moeke</w>":580,"hui":581,"dood</w>":582,"mee":583,"zul":584,"boe":585,"kie":586,"ssen</w>":587,"tan":588,"oom</w>":589,"oaf":590,"rec":591,"veur":592,"hou":593,"mijn</w>":594,"mij</w>":595,"joe</w>":596,"uur</w>":597,"uw":598,"weet</w>":599,"tt":600,"ek</w>":601,"ul</w>":602,"hadde</w>":603,"hol":604,"oude</w>":605,"niets</w>":606,"zo'n</w>":607,"wereld</w>":608,"bu":609,"mp</w>":610,"ro":611,"dre":612,"gezi":613,"and</w>":614,"door":615,"gd</w>":616,"och</w>":617,"mee</w>":618,"tte</w>":619,"mout</w>":620,"woa":621,"sten</w>":622,"ain":623,"dou":624,"kun":625,"scha":626,"hond</w>":627,"oren</w>":628,"boer":629,"tante</w>":630,"bin</w>":631,"sne":632,"igen</w>":633,"ïn</w>":634,"heid</w>":635,"altijd</w>":636,"kind</w>":637,"zitten</w>":638,"kop</w>":639,"na</w>":640,"veel</w>":641,"mensen</w>":642,"lt</w>":643,"ten":644,"zoa":645,"oot</w>":646,"grij":647,"ientje</w>":648,"hoor":649,"ide</w>":650,"len":651,"zag</w>":652,"ts":653,"hand</w>":654,"on</w>":655,"staat</w>":656,"binnen</w>":657,"dit</w>":658,"nij":659,"war":660,"oeg</w>":661,"mer</w>":662,"ve</w>":663,"keer</w>":664,"kre":665,"voe":666,"vel":667,"stil</w>":668,"gro":669,"worden</w>":670,"hoofd</w>":671,"geld</w>":672,"koa":673,"vin":674,"keek</w>":675,"doa":676,"je":677,"hel":678,"hem":679,"toe</w>":680,"twe":681,"zie":682,"mos</w>":683,"gun":684,"kel</w>":685,"iets</w>":686,"ander":687,"lai":688,"uit":689,"urt</w>":690,"direc":691,"stil":692,"gebe":693,"geven</w>":694,"ang</w>":695,"licht</w>":696,"doortje</w>":697,"ki":698,"éé":699,"arbei":700,"ier":701,"mientje</w>":702,"val":703,"jongen</w>":704,"goan</w>":705,"hen</w>":706,"kla":707,"ton":708,"omas</w>":709,"thomas</w>":710,"gezicht</w>":711,"anders</w>":712,"eerst</w>":713,"oafien</w>":714,"wij</w>":715,"wait</w>":716,"bon":717,"aag</w>":718,"oet":719,"mid":720,"aô":721,"die":722,"pra":723,"doen</w>":724,"kne":725,"ôl":726,"geer":727,"dok":728,"hun</w>":729,"mooi</w>":730,"ju":731,"erd</w>":732,"hail</w>":733,"aande</w>":734,"mens</w>":735,"ti":736,"wol</w>":737,"ijk</w>":738,"lang</w>":739,"krij":740,"bla":741,"eer</w>":742,"tjes</w>":743,"waa":744,"oon":745,"wezen</w>":746,"brie":747,"hum</w>":748,"bij":749,"laat</w>":750,"us</w>":751,"veul</w>":752,"opt</w>":753,"mag</w>":754,"ms</w>":755,"vrij":756,"blij":757,"daar":758,"wol":759,"iend</w>":760,"achter":761,"kker</w>":762,"ligt</w>":763,"bro":764,"is":765,"gens</w>":766,"vast</w>":767,"doun</w>":768,"oas</w>":769,"naôr</w>":770,"werd</w>":771,"wind</w>":772,"se</w>":773,"uu":774,"urde</w>":775,"aand</w>":776,"wilde</w>":777,"meester</w>":778,"hoa":779,"roe":780,"proa":781,"vot</w>":782,"dru":783,"jan":784,"rou":785,"zoo":786,"gelu":787,"ige</w>":788,"kra":789,"lopen</w>":790,"se":791,"taande</w>":792,"ine</w>":793,"noa</w>":794,"zuk</w>":795,"hemmen</w>":796,"blie":797,"koo":798,"aam</w>":799,"heel</w>":800,"zeker</w>":801,"nacht</w>":802,"wicht</w>":803,"iden</w>":804,"ppen</w>":805,"gra":806,"allemaal</w>":807,"kaar</w>":808,"po":809,"vra":810,"dokter</w>":811,"gk</w>":812,"goa</w>":813,"kje</w>":814,"vol</w>":815,"vertel":816,"ine":817,"moal</w>":818,"één</w>":819,"lin":820,"min":821,"wen":822,"meneer</w>":823,"av":824,"ies</w>":825,"ent</w>":826,"weer":827,"hebt</w>":828,"wen</w>":829,"recht":830,"elkaar</w>":831,"vel</w>":832,"moest</w>":833,"lucht</w>":834,"ds":835,"kke</w>":836,"rij":837,"hele</w>":838,"neer</w>":839,"vader</w>":840,"zelf</w>":841,"juff":842,"pe":843,"dacht</w>":844,"zain</w>":845,"mers</w>":846,"denken</w>":847,"ls</w>":848,"noa":849,"sle":850,"ont":851,"hai":852,"land</w>":853,"werk</w>":854,"alleen</w>":855,"don":856,"hal":857,"voa":858,"èn</w>":859,"sto":860,"staan</w>":861,"boven</w>":862,"langs</w>":863,"waark</w>":864,"baa":865,"heen</w>":866,"ood</w>":867,"haid</w>":868,"stee":869,"dui":870,"heoa</w>":871,"ander</w>":872,"zol</w>":873,"matt":874,"joa</w>":875,"mand</w>":876,"domine":877,"woord</w>":878,"mattheoa</w>":879,"uwe</w>":880,"els</w>":881,"urd</w>":882,"gait</w>":883,"trou":884,"trui</w>":885,"tussen</w>":886,"zulf</w>":887,"ca":888,"fa":889,"oagen</w>":890,"alle</w>":891,"spe":892,"twee</w>":893,"hoor</w>":894,"ud</w>":895,"vre":896,"waren</w>":897,"oabel</w>":898,"stand</w>":899,"ull":900,"grote</w>":901,"jull":902,"ner</w>":903,"ôll</w>":904,"jullie</w>":905,"fe":906,"kree":907,"per":908,"re</w>":909,"vui":910,"zze</w>":911,"hele":912,"gele":913,"omen</w>":914,"dominee</w>":915,"helemaal</w>":916,"ding</w>":917,"zon":918,"schi":919,"krie":920,"gde</w>":921,"ner":922,"won":923,"stig</w>":924,"kwamp</w>":925,"bui":926,"ust</w>":927,"stoan</w>":928,"aans</w>":929,"bloe":930,"andere</w>":931,"kreeg</w>":932,"oon</w>":933,"del":934,"chter</w>":935,"dicht</w>":936,"eerste</w>":937,"kijk</w>":938,"volk</w>":939,"bi":940,"zun":941,"regen</w>":942,"olle</w>":943,"spr":944,"dje</w>":945,"eel</w>":946,"gijn</w>":947,"gaait</w>":948,"aauw</w>":949,"wachten</w>":950,"oek</w>":951,"reken</w>":952,"scho":953,"kes</w>":954,"trekt</w>":955,"kunnen</w>":956,"bru":957,"dra":958,"doan</w>":959,"vend</w>":960,"ende</w>":961,"beter</w>":962,"tro":963,"gungk</w>":964,"go":965,"ga</w>":966,"kor":967,"rui":968,"ta":969,"geda":970,"laten</w>":971,"draa":972,"bent</w>":973,"houden</w>":974,"arbeider</w>":975,"her":976,"kend</w>":977,"aak</w>":978,"bee":979,"deren</w>":980,"jonge</w>":981,"kerel</w>":982,"gers</w>":983,"ein":984,"ig":985,"ld</w>":986,"ss":987,"ôl</w>":988,"ale</w>":989,"verder</w>":990,"dee":991,"aaltied</w>":992,"kijkt</w>":993,"uut</w>":994,"ii</w>":995,"jaar</w>":996,"kin</w>":997,"kop":998,"mt</w>":999,"stond</w>":1000,"altied</w>":1001,"del</w>":1002,"nig</w>":1003,"bren":1004,"koaïn</w>":1005,"daan</w>":1006,"kö":1007,"zie</w>":1008,"daôr</w>":1009,"west</w>":1010,"les</w>":1011,"omdat</w>":1012,"jou</w>":1013,"merie</w>":1014,"eens</w>":1015,"nd</w>":1016,"un</w>":1017,"mar":1018,"mans</w>":1019,"'m</w>":1020,"bra":1021,"vie":1022,"stra":1023,"toa</w>":1024,"dor":1025,"groo":1026,"grie":1027,"matoa</w>":1028,"mens":1029,"kander</w>":1030,"kelijk</w>":1031,"kikt</w>":1032,"eigen</w>":1033,"sli":1034,"best</w>":1035,"als":1036,"lag</w>":1037,"kaïn</w>":1038,"wanneer</w>":1039,"uld</w>":1040,"slag</w>":1041,"rond</w>":1042,"zet</w>":1043,"dee</w>":1044,"liek</w>":1045,"ber</w>":1046,"bor":1047,"mp":1048,"tste</w>":1049,"ôn</w>":1050,"gel</w>":1051,"ham</w>":1052,"deze</w>":1053,"moeten</w>":1054,"kennen</w>":1055,"kant</w>":1056,"immers</w>":1057,"hollen</w>":1058,"boo":1059,"ban":1060,"haand</w>":1061,"mde</w>":1062,"woar":1063,"mel":1064,"schu":1065,"stille</w>":1066,"doet</w>":1067,"meid</w>":1068,"liep</w>":1069,"gauw</w>":1070,"handen</w>":1071,"weest</w>":1072,"hoog</w>":1073,"maakt</w>":1074,"kieken</w>":1075,"cath":1076,"alsof</w>":1077,"gang</w>":1078,"hie":1079,"mör":1080,"ns</w>":1081,"wai":1082,"gek</w>":1083,"geweest</w>":1084,"kommen</w>":1085,"unt</w>":1086,"koff":1087,"truud</w>":1088,"vent</w>":1089,"kijken</w>":1090,"kiek</w>":1091,"geertruud</w>":1092,"briek</w>":1093,"doe":1094,"hij":1095,"ieder</w>":1096,"stoe":1097,"weg":1098,"docht</w>":1099,"grond</w>":1100,"brui":1101,"laand</w>":1102,"blee":1103,"mond</w>":1104,"sn":1105,"ug</w>":1106,"zin</w>":1107,"aast</w>":1108,"onden</w>":1109,"lek</w>":1110,"versch":1111,"zor":1112,"vroeg</w>":1113,"old</w>":1114,"liggen</w>":1115,"joen</w>":1116,"zuster</w>":1117,"kloas</w>":1118,"loopt</w>":1119,"woorden</w>":1120,"ziet</w>":1121,"toneel</w>":1122,"deed</w>":1123,"mor":1124,"taf":1125,"zom":1126,"meis":1127,"wist</w>":1128,"teur</w>":1129,"drie":1130,"vaô":1131,"duu":1132,"dus</w>":1133,"direct</w>":1134,"praten</w>":1135,"vertellen</w>":1136,"bli":1137,"lu</w>":1138,"gee":1139,"leden</w>":1140,"groot</w>":1141,"graag</w>":1142,"tegen":1143,"liefde</w>":1144,"mans":1145,"steren</w>":1146,"proaten</w>":1147,"joa":1148,"joar</w>":1149,"lde</w>":1150,"zin":1151,"stel":1152,"aalt</w>":1153,"willen</w>":1154,"wodde</w>":1155,"boul":1156,"directeur</w>":1157,"gedachten</w>":1158,"lo</w>":1159,"vla":1160,"zzen</w>":1161,"zonder</w>":1162,"staar":1163,"zegd</w>":1164,"vert":1165,"recht</w>":1166,"kleine</w>":1167,"loat</w>":1168,"geluk</w>":1169,"doar":1170,"koe":1171,"toa":1172,"zen":1173,"neu":1174,"denk</w>":1175,"mis":1176,"haile</w>":1177,"bie":1178,"gien</w>":1179,"nô</w>":1180,"um":1181,"water</w>":1182,"stie":1183,"weten</w>":1184,"schuld</w>":1185,"lieden</w>":1186,"denkt</w>":1187,"stait</w>":1188,"harm</w>":1189,"mooie</w>":1190,"knecht</w>":1191,"boulm</w>":1192,"dur":1193,"loe":1194,"toe":1195,"hes</w>":1196,"ijn":1197,"zee":1198,"beste</w>":1199,"deur":1200,"schou":1201,"ellen":1202,"lang":1203,"aren</w>":1204,"dut</w>":1205,"stem</w>":1206,"midden</w>":1207,"loaten</w>":1208,"begon</w>":1209,"laank</w>":1210,"jeu":1211,"mansoom</w>":1212,"abel</w>":1213,"ks":1214,"ko</w>":1215,"kwoa":1216,"lou":1217,"of":1218,"ploa":1219,"plaa":1220,"mel</w>":1221,"zetten</w>":1222,"elk</w>":1223,"gaf</w>":1224,"waart</w>":1225,"winter</w>":1226,"bennen</w>":1227,"kregen</w>":1228,"donker</w>":1229,"steeds</w>":1230,"buiten</w>":1231,"ach</w>":1232,"ft":1233,"kru":1234,"kwaa":1235,"roa":1236,"sien</w>":1237,"vi":1238,"zó</w>":1239,"zwar":1240,"erg</w>":1241,"erde</w>":1242,"dan":1243,"leu":1244,"hadden</w>":1245,"aard</w>":1246,"bran":1247,"ppel":1248,"dreu":1249,"kriegen</w>":1250,"kön</w>":1251,"mu":1252,"si":1253,"woon":1254,"gesp":1255,"anne</w>":1256,"wel":1257,"bed</w>":1258,"alla":1259,"gron":1260,"maken</w>":1261,"tuur":1262,"hart</w>":1263,"kunt</w>":1264,"boerin</w>":1265,"zoals</w>":1266,"krijgen</w>":1267,"bijna</w>":1268,"baas</w>":1269,"raa":1270,"tra":1271,"vuur</w>":1272,"wôll</w>":1273,"ene</w>":1274,"mevrouw</w>":1275,"haô":1276,"nieuwe</w>":1277,"drin":1278,"pad</w>":1279,"bai":1280,"nijt</w>":1281,"zoo'n</w>":1282,"su":1283,"som":1284,"ers</w>":1285,"gelijk</w>":1286,"ijne</w>":1287,"aner</w>":1288,"onnen</w>":1289,"inen</w>":1290,"verke":1291,"aarm</w>":1292,"stuk</w>":1293,"rouw</w>":1294,"avond</w>":1295,"ales</w>":1296,"eten</w>":1297,"hè</w>":1298,"or</w>":1299,"sa":1300,"ijs</w>":1301,"schaa":1302,"derk</w>":1303,"chtig</w>":1304,"pro":1305,"wou</w>":1306,"valt</w>":1307,"tafel</w>":1308,"am":1309,"ple":1310,"sje</w>":1311,"dai":1312,"dame</w>":1313,"oog</w>":1314,"gev":1315,"gedaan</w>":1316,"zette</w>":1317,"vraauw</w>":1318,"aantje</w>":1319,"rustig</w>":1320,"dige</w>":1321,"bron":1322,"joche":1323,"stad</w>":1324,"allain</w>":1325,"jochems</w>":1326,"'e</w>":1327,"dingen</w>":1328,"ren":1329,"ron":1330,"vor":1331,"stoo":1332,"gebo":1333,"vroe":1334,"arm</w>":1335,"loot</w>":1336,"reep</w>":1337,"leeg</w>":1338,"overal</w>":1339,"helpen</w>":1340,"eind</w>":1341,"koffie</w>":1342,"boas</w>":1343,"lopt</w>":1344,"nu":1345,"sm":1346,"wied</w>":1347,"zingen</w>":1348,"onner</w>":1349,"verge":1350,"hail":1351,"laô":1352,"zon</w>":1353,"oord</w>":1354,"kri":1355,"kerk":1356,"kinderen</w>":1357,"trekken</w>":1358,"weerom</w>":1359,"morgen</w>":1360,"ai":1361,"ei":1362,"haal":1363,"lö":1364,"ler":1365,"tou":1366,"wit</w>":1367,"wonder</w>":1368,"dag":1369,"enen</w>":1370,"ong</w>":1371,"delijk</w>":1372,"nemen</w>":1373,"aalmoal</w>":1374,"voorbij</w>":1375,"woater</w>":1376,"vinken":1377,"blijft</w>":1378,"fst</w>":1379,"kk":1380,"peer":1381,"ske</w>":1382,"zaa":1383,"iemand</w>":1384,"uig</w>":1385,"dizze</w>":1386,"keu":1387,"iene</w>":1388,"geno":1389,"terug</w>":1390,"boeten</w>":1391,"snee":1392,"snel</w>":1393,"avon":1394,"juffrouw</w>":1395,"kwaad</w>":1396,"bbe":1397,"dom</w>":1398,"i-":1399,"kni":1400,"md</w>":1401,"sni":1402,"zö":1403,"heer</w>":1404,"ston</w>":1405,"ijf</w>":1406,"onge":1407,"verd":1408,"schoa":1409,"lach":1410,"gras</w>":1411,"lig</w>":1412,"kens</w>":1413,"hoog":1414,"doom":1415,"stub":1416,"eentje</w>":1417,"aine</w>":1418,"middag</w>":1419,"kracht</w>":1420,"beetje</w>":1421,"brengen</w>":1422,"bleef</w>":1423,"meisje</w>":1424,"vaôder</w>":1425,"geef</w>":1426,"tuurlijk</w>":1427,"ee":1428,"gi":1429,"gla":1430,"hèn</w>":1431,"pas</w>":1432,"vaar":1433,"wiend</w>":1434,"zoe":1435,"wacht</w>":1436,"wazzen</w>":1437,"onze</w>":1438,"deel</w>":1439,"natuurlijk</w>":1440,"rust</w>":1441,"licht":1442,"lieve</w>":1443,"luit</w>":1444,"kamp</w>":1445,"ters</w>":1446,"sloa":1447,"druk</w>":1448,"jansen</w>":1449,"ellende</w>":1450,"brongers</w>":1451,"bomen</w>":1452,"kou":1453,"mmer":1454,"mmer</w>":1455,"tie":1456,"tst</w>":1457,"hest</w>":1458,"oavend</w>":1459,"stou":1460,"geeft</w>":1461,"verst":1462,"niemand</w>":1463,"aander</w>":1464,"opge":1465,"luu":1466,"jongens</w>":1467,"blik</w>":1468,"leek</w>":1469,"onderd</w>":1470,"domie</w>":1471,"hoort</w>":1472,"diep</w>":1473,"geern</w>":1474,"dorp</w>":1475,"slim</w>":1476,"waiten</w>":1477,"soms</w>":1478,"echt</w>":1479,"jaren</w>":1480,"naar":1481,"pi":1482,"roo":1483,"vou":1484,"vaak</w>":1485,"zör":1486,"oog":1487,"ieder":1488,"oaf</w>":1489,"let</w>":1490,"verlan":1491,"dro":1492,"lijkt</w>":1493,"langer</w>":1494,"worren</w>":1495,"week</w>":1496,"kende</w>":1497,"winkel</w>":1498,"moakt</w>":1499,"schap</w>":1500,"trokken</w>":1501,"baan":1502,"col":1503,"dij":1504,"horen</w>":1505,"pan":1506,"tel</w>":1507,"allin":1508,"schoo":1509,"nam</w>":1510,"vrij</w>":1511,"hangt</w>":1512,"iende</w>":1513,"gende</w>":1514,"kamer</w>":1515,"pakt</w>":1516,"reek</w>":1517,"slo":1518,"stroa":1519,"boelo</w>":1520,"trouw":1521,"jeuzel":1522,"amb":1523,"stubber</w>":1524,"din":1525,"gou":1526,"gre":1527,"ler</w>":1528,"min</w>":1529,"prec":1530,"rood</w>":1531,"vaalt</w>":1532,"aas</w>":1533,"har</w>":1534,"schoot</w>":1535,"groe":1536,"liet</w>":1537,"trok</w>":1538,"kleur</w>":1539,"boeren":1540,"bist</w>":1541,"verteld</w>":1542,"genog</w>":1543,"daal</w>":1544,"goo":1545,"kar":1546,"leren</w>":1547,"ogen":1548,"ps":1549,"tie</w>":1550,"thuis</w>":1551,"waait</w>":1552,"zui":1553,"heuren</w>":1554,"waôr</w>":1555,"geb":1556,"leste</w>":1557,"schien</w>":1558,"ragebo":1559,"lijke</w>":1560,"hoes":1561,"maaier</w>":1562,"begun":1563,"vallen</w>":1564,"vragen</w>":1565,"voak</w>":1566,"kopstubber</w>":1567,"hijle</w>":1568,"blift</w>":1569,"loug</w>":1570,"vergeten</w>":1571,"lachen</w>":1572,"ragebol</w>":1573,"bar":1574,"bang</w>":1575,"et</w>":1576,"tter":1577,"heu":1578,"dags</w>":1579,"oom":1580,"gest":1581,"ingt</w>":1582,"leeft</w>":1583,"elt</w>":1584,"ort</w>":1585,"derij</w>":1586,"main":1587,"dri":1588,"drie</w>":1589,"hol</w>":1590,"vak":1591,"klaar</w>":1592,"loop</w>":1593,"waarom</w>":1594,"blin":1595,"stuur":1596,"mouten</w>":1597,"beiden</w>":1598,"luisteren</w>":1599,"laatste</w>":1600,"huis":1601,"hoorde</w>":1602,"stilte</w>":1603,"arbeiders</w>":1604,"broer</w>":1605,"juffer</w>":1606,"schipp":1607,"mensk</w>":1608,"duuster</w>":1609,"keuken</w>":1610,"ambten":1611,"aigen</w>":1612,"dun":1613,"gst</w>":1614,"ghaid</w>":1615,"hin":1616,"jaantje</w>":1617,"k-":1618,"kna":1619,"nen":1620,"pte</w>":1621,"pla":1622,"ën</w>":1623,"heurt</w>":1624,"onbe":1625,"leggen</w>":1626,"omhoog</w>":1627,"schr":1628,"sche</w>":1629,"schôll</w>":1630,"later</w>":1631,"krui":1632,"vat</w>":1633,"mannen</w>":1634,"hoop</w>":1635,"haart</w>":1636,"slaa":1637,"dood":1638,"gere":1639,"doagen</w>":1640,"krijgt</w>":1641,"fabriek</w>":1642,"zunder</w>":1643,"straks</w>":1644,"verschri":1645,"vroeger</w>":1646,"kaan":1647,"kun</w>":1648,"pol":1649,"rien":1650,"twee":1651,"vlie":1652,"hen":1653,"heurde</w>":1654,"stok</w>":1655,"schree":1656,"vroagen</w>":1657,"zacht</w>":1658,"oppen</w>":1659,"olen</w>":1660,"maô":1661,"drij":1662,"loof</w>":1663,"kenen</w>":1664,"pakken</w>":1665,"riep</w>":1666,"bus</w>":1667,"roken</w>":1668,"vels</w>":1669,"gebeurd</w>":1670,"half</w>":1671,"cathrien":1672,"joaren</w>":1673,"allinnig</w>":1674,"vakbon":1675,"cathriena</w>":1676,"fie":1677,"ji":1678,"kiend</w>":1679,"kkelijk</w>":1680,"mon":1681,"moud</w>":1682,"naast</w>":1683,"sme":1684,"sno":1685,"tsen</w>":1686,"wer</w>":1687,"aauw":1688,"dagen</w>":1689,"stert</w>":1690,"ens</w>":1691,"nieuw</w>":1692,"schoon</w>":1693,"witte</w>":1694,"chtje</w>":1695,"gaôn</w>":1696,"zun</w>":1697,"loos</w>":1698,"loopen</w>":1699,"stun</w>":1700,"hard</w>":1701,"klein</w>":1702,"boudel</w>":1703,"imke</w>":1704,"grijpt</w>":1705,"gebeuren</w>":1706,"koop</w>":1707,"kort</w>":1708,"bracht</w>":1709,"stoel</w>":1710,"kwoad</w>":1711,"ftig</w>":1712,"ogenblik</w>":1713,"au":1714,"djes</w>":1715,"hé</w>":1716,"kon":1717,"ltje</w>":1718,"mis</w>":1719,"pe</w>":1720,"pie":1721,"pel":1722,"so":1723,"sna":1724,"smo":1725,"zend</w>":1726,"zaam</w>":1727,"dam":1728,"chri":1729,"gezegd</w>":1730,"lege</w>":1731,"mejuffrouw</w>":1732,"aller":1733,"lacht</w>":1734,"rai":1735,"lange</w>":1736,"tril":1737,"kwam":1738,"kere</w>":1739,"slaat</w>":1740,"sloagen</w>":1741,"wilt</w>":1742,"wijt</w>":1743,"rienoa</w>":1744,"luip</w>":1745,"veurbie</w>":1746,"boerderij</w>":1747,"cathrienoa</w>":1748,"deure</w>":1749,"eigen":1750,"jeuzelkamp</w>":1751,"baar</w>":1752,"bul":1753,"eg</w>":1754,"jou":1755,"ku":1756,"noor":1757,"tje":1758,"vree":1759,"vlo":1760,"zer</w>":1761,"oaven":1762,"geit</w>":1763,"gehad</w>":1764,"ant":1765,"onk</w>":1766,"onver":1767,"leer</w>":1768,"verdra":1769,"schuur</w>":1770,"schrij":1771,"aarda":1772,"aarbai":1773,"uist</w>":1774,"zaten</w>":1775,"boeren</w>":1776,"broe":1777,"bert</w>":1778,"armen</w>":1779,"klok</w>":1780,"stee</w>":1781,"mist</w>":1782,"venster</w>":1783,"maak</w>":1784,"richt":1785,"hoord</w>":1786,"hoast</w>":1787,"roept</w>":1788,"bruier</w>":1789,"ploats</w>":1790,"au</w>":1791,"bis</w>":1792,"bre":1793,"bur":1794,"gingen</w>":1795,"honderd</w>":1796,"kal":1797,"paar</w>":1798,"pre":1799,"t-":1800,"tien</w>":1801,"wôl</w>":1802,"zied</w>":1803,"heur":1804,"waô":1805,"oag</w>":1806,"staait</w>":1807,"gekomen</w>":1808,"geliek</w>":1809,"gehoord</w>":1810,"int</w>":1811,"lezen</w>":1812,"ouden</w>":1813,"zeer</w>":1814,"regen":1815,"deg</w>":1816,"zachte</w>":1817,"gru":1818,"spel":1819,"gels</w>":1820,"stern</w>":1821,"wief</w>":1822,"zelfde</w>":1823,"wodden</w>":1824,"laip</w>":1825,"plaats</w>":1826,"groningen</w>":1827,"drinken</w>":1828,"precies</w>":1829,"ambtenaar</w>":1830,"vakbonds":1831,"christ":1832,"dder</w>":1833,"dien":1834,"gge</w>":1835,"gul":1836,"gheid</w>":1837,"kör":1838,"mie":1839,"nt</w>":1840,"paard</w>":1841,"sie":1842,"sloot</w>":1843,"tj":1844,"aagt</w>":1845,"heurd</w>":1846,"daô":1847,"gez":1848,"gegaan</w>":1849,"gemaakt</w>":1850,"onken</w>":1851,"meu":1852,"redden</w>":1853,"nachten</w>":1854,"veer":1855,"gri":1856,"rug</w>":1857,"moei":1858,"zigt</w>":1859,"dikke</w>":1860,"genoeg</w>":1861,"jonge":1862,"klin":1863,"blij</w>":1864,"wiet</w>":1865,"scheu":1866,"kanten</w>":1867,"beide</w>":1868,"vinden</w>":1869,"twei</w>":1870,"daarom</w>":1871,"pot</w>":1872,"febriek</w>":1873,"woarom</w>":1874,"verkeerd</w>":1875,"fs</w>":1876,"flin":1877,"gend</w>":1878,"kke":1879,"maar":1880,"til":1881,"wis</w>":1882,"zwaar</w>":1883,"zwij":1884,"ers":1885,"stom":1886,"enkel</w>":1887,"gew":1888,"geme":1889,"leven":1890,"lekker</w>":1891,"zes</w>":1892,"nomen</w>":1893,"nodig</w>":1894,"allen":1895,"verstand</w>":1896,"verdrie":1897,"schoon":1898,"nee":1899,"elde</w>":1900,"macht</w>":1901,"gat</w>":1902,"draait</w>":1903,"vrouwen</w>":1904,"kwamen</w>":1905,"kers</w>":1906,"reekt</w>":1907,"stappen</w>":1908,"kinder</w>":1909,"koamer</w>":1910,"slecht</w>":1911,"mörgen</w>":1912,"misschien</w>":1913,"peerd</w>":1914,"avonds</w>":1915,"doomdie</w>":1916,"dschap</w>":1917,"fle":1918,"gge":1919,"gli":1920,"kaal":1921,"kjes</w>":1922,"nood</w>":1923,"pel</w>":1924,"pijn</w>":1925,"pke</w>":1926,"vie</w>":1927,"stan":1928,"enten</w>":1929,"bed":1930,"ton</w>":1931,"nest</w>":1932,"neus</w>":1933,"zoveel</w>":1934,"ollen</w>":1935,"lich":1936,"kraa":1937,"word</w>":1938,"klo":1939,"kloar</w>":1940,"praa":1941,"wieder</w>":1942,"overdag</w>":1943,"straat</w>":1944,"los</w>":1945,"laag</w>":1946,"sneu</w>":1947,"voel</w>":1948,"gebeurt</w>":1949,"krijg</w>":1950,"blijven</w>":1951,"proat</w>":1952,"koop":1953,"vrau</w>":1954,"vertelde</w>":1955,"duister</w>":1956,"vuil</w>":1957,"viel</w>":1958,"'r</w>":1959,"eh</w>":1960,"fr":1961,"gu":1962,"gloe":1963,"juist</w>":1964,"kten</w>":1965,"mui":1966,"maan":1967,"naa":1968,"per</w>":1969,"poo":1970,"poe":1971,"sken</w>":1972,"tja</w>":1973,"us":1974,"vij":1975,"zwi":1976,"zier</w>":1977,"zwaar":1978,"heden</w>":1979,"sten":1980,"ijt</w>":1981,"wees</w>":1982,"rel</w>":1983,"deu":1984,"last</w>":1985,"zok</w>":1986,"zodat</w>":1987,"liekt</w>":1988,"spin":1989,"spra":1990,"brood</w>":1991,"hoge</w>":1992,"werken</w>":1993,"pati":1994,"praat</w>":1995,"overaal</w>":1996,"trek</w>":1997,"wor</w>":1998,"krek</w>":1999,"blijf</w>":2000,"blieven</w>":2001,"minder</w>":2002,"wonnen</w>":2003,"doarom</w>":2004,"krigt</w>":2005,"patië":2006,"bör":2007,"band</w>":2008,"boord</w>":2009,"goa":2010,"gste</w>":2011,"ieren</w>":2012,"knie":2013,"sj":2014,"vlu":2015,"vond</w>":2016,"waal":2017,"zij":2018,"stre":2019,"enige</w>":2020,"geworden</w>":2021,"geliefde</w>":2022,"onner":2023,"wegen</w>":2024,"verl":2025,"des</w>":2026,"deks":2027,"schain</w>":2028,"ruten":2029,"rais</w>":2030,"keken</w>":2031,"drok</w>":2032,"hans</w>":2033,"vroug</w>":2034,"kof":2035,"klopt</w>":2036,"terecht</w>":2037,"proo":2038,"sterde</w>":2039,"leed</w>":2040,"stro":2041,"loater</w>":2042,"begreep</w>":2043,"ppels</w>":2044,"uwt</w>":2045,"aôf":2046,"vrijen</w>":2047,"brocht</w>":2048,"krachten</w>":2049,"voader</w>":2050,"gelegen":2051,"bank</w>":2052,"neudig</w>":2053,"umbus</w>":2054,"gesproken</w>":2055,"haildaal</w>":2056,"lös</w>":2057,"sneeuw</w>":2058,"stoul</w>":2059,"columbus</w>":2060,"oomke</w>":2061,"dunkt</w>":2062,"kaant</w>":2063,"gulden</w>":2064,"rutengoa</w>":2065,".b</w>":2066,"flui":2067,"kst</w>":2068,"koom</w>":2069,"llen</w>":2070,"mte</w>":2071,"tal":2072,"um</w>":2073,"voa</w>":2074,"v.b</w>":2075,"woe":2076,"zwie":2077,"oogen</w>":2078,"wakker</w>":2079,"stop":2080,"geft</w>":2081,"been</w>":2082,"begrie":2083,"verker":2084,"rekenen</w>":2085,"ommel</w>":2086,"schui":2087,"neie</w>":2088,"nacht":2089,"lam":2090,"dochter</w>":2091,"vru":2092,"ruzie</w>":2093,"moed</w>":2094,"komst</w>":2095,"boen":2096,"lief":2097,"lijden</w>":2098,"hannen</w>":2099,"huus</w>":2100,"werk":2101,"kroe":2102,"kocht</w>":2103,"duurde</w>":2104,"hoek</w>":2105,"pak</w>":2106,"winger":2107,"prim":2108,"blou":2109,"leefde</w>":2110,"schemer":2111,"slagen</w>":2112,"maakte</w>":2113,"vangen</w>":2114,"laive</w>":2115,"broken</w>":2116,"rechtvaar":2117,"trouwen</w>":2118,"god</w>":2119,"stief</w>":2120,"begunde</w>":2121,"verschrikkelijk</w>":2122,"wingerds</w>":2123,"--</w>":2124,"boom</w>":2125,"daag</w>":2126,"fli":2127,"gooit</w>":2128,"icht</w>":2129,"kn":2130,"mom":2131,"pje</w>":2132,"poar</w>":2133,"paar":2134,"tken</w>":2135,"taal</w>":2136,"zouden</w>":2137,"eruit</w>":2138,"hei":2139,"heer":2140,"dak</w>":2141,"wal</w>":2142,"gewe":2143,"antje</w>":2144,"ongen</w>":2145,"ineens</w>":2146,"legen</w>":2147,"lest</w>":2148,"legt</w>":2149,"ouwe</w>":2150,"zewinkel</w>":2151,"begrij":2152,"rek</w>":2153,"schur":2154,"schol":2155,"schro":2156,"aarms</w>":2157,"veen":2158,"zoen</w>":2159,"orde</w>":2160,"maôl</w>":2161,"lichte</w>":2162,"dicht":2163,"lief</w>":2164,"liever</w>":2165,"spie":2166,"moe</w>":2167,"mocht</w>":2168,"bers</w>":2169,"trien</w>":2170,"looi-":2171,"gelopen</w>":2172,"gerust</w>":2173,"moak</w>":2174,"moaken</w>":2175,"maaid</w>":2176,"vot":2177,"boun":2178,"eenmaal</w>":2179,"houdt</w>":2180,"voelt</w>":2181,"aôf</w>":2182,"tikt</w>":2183,"blad</w>":2184,"brief</w>":2185,"schip</w>":2186,"springt</w>":2187,"ruip</w>":2188,"zwarte</w>":2189,"daip</w>":2190,"vinkenust</w>":2191,"vinkennest</w>":2192,"eigenlijk</w>":2193,"aardappel":2194,"verloren</w>":2195,"looi-oomke</w>":2196,"cent</w>":2197,"even":2198,"fel":2199,"kkel":2200,"kleed</w>":2201,"no</w>":2202,"nde</w>":2203,"pu":2204,"smee":2205,"vis":2206,"zó":2207,"én</w>":2208,"ôt</w>":2209,"erbij</w>":2210,"heerd</w>":2211,"gezien</w>":2212,"zeu":2213,"schoe":2214,"schier</w>":2215,"schil":2216,"schri":2217,"elke</w>":2218,"lach</w>":2219,"vrun":2220,"vraag</w>":2221,"vruig</w>":2222,"zacht":2223,"gaô</w>":2224,"keel</w>":2225,"brand</w>":2226,"dran":2227,"lui</w>":2228,"berre</w>":2229,"vrouger</w>":2230,"kerk</w>":2231,"kerels</w>":2232,"eerder</w>":2233,"hoeft</w>":2234,"manier</w>":2235,"kent</w>":2236,"haard</w>":2237,"mit":2238,"gelo":2239,"sterven</w>":2240,"scheiden</w>":2241,"overeind</w>":2242,"slapen</w>":2243,"kant":2244,"bena":2245,"begint</w>":2246,"volle</w>":2247,"jaôr</w>":2248,"zoam</w>":2249,"grijt</w>":2250,"voeten</w>":2251,"uitge":2252,"wollen</w>":2253,"roupen</w>":2254,"pekel":2255,"donkere</w>":2256,"krieg</w>":2257,"schoen":2258,"draaien</w>":2259,"markt</w>":2260,"groote</w>":2261,"zorgen</w>":2262,"tieden</w>":2263,"naartoe</w>":2264,"iedereen</w>":2265,"verlangen</w>":2266,"jim</w>":2267,"lichaam</w>":2268,"prima</w>":2269,"smeet</w>":2270,"boar</w>":2271,"bleven</w>":2272,"da</w>":2273,"es":2274,"fla":2275,"gaauw</w>":2276,"gong</w>":2277,"he</w>":2278,"ilen</w>":2279,"koud</w>":2280,"pl":2281,"pa</w>":2282,"plan":2283,"par":2284,"sch</w>":2285,"sma":2286,"slij":2287,"snij":2288,"tig</w>":2289,"uwi":2290,"voo":2291,"át</w>":2292,"erf</w>":2293,"heet</w>":2294,"dam</w>":2295,"ietje</w>":2296,"gegeven</w>":2297,"gekregen</w>":2298,"geloof</w>":2299,"leg</w>":2300,"leit</w>":2301,"melt</w>":2302,"bedr":2303,"beloo":2304,"verw":2305,"scher":2306,"naô</w>":2307,"urig</w>":2308,"oort</w>":2309,"spou":2310,"lijdt</w>":2311,"lutje</w>":2312,"werden</w>":2313,"vrouw":2314,"arme</w>":2315,"kov":2316,"troo":2317,"triene</w>":2318,"steken</w>":2319,"merietje</w>":2320,"winter":2321,"stuur</w>":2322,"schel":2323,"stroo":2324,"tuin</w>":2325,"tuur</w>":2326,"moust</w>":2327,"slagt</w>":2328,"oare</w>":2329,"jaô":2330,"binnen":2331,"zullen</w>":2332,"zulfde</w>":2333,"holt</w>":2334,"doags</w>":2335,"halen</w>":2336,"pers":2337,"sprong</w>":2338,"hield</w>":2339,"zomaar</w>":2340,"haôzewinkel</w>":2341,"trouwd</w>":2342,"heufd</w>":2343,"schippers":2344,"geregeld</w>":2345,"christien</w>":2346,"verdriet</w>":2347,"geweld</w>":2348,"boa":2349,"ci":2350,"centen</w>":2351,"dik</w>":2352,"foe":2353,"for":2354,"fke</w>":2355,"hin</w>":2356,"hoar</w>":2357,"hof</w>":2358,"jas</w>":2359,"kaar":2360,"kien":2361,"kker":2362,"koren</w>":2363,"lend</w>":2364,"pen":2365,"pte":2366,"rie</w>":2367,"sin":2368,"twij</w>":2369,"óó":2370,"stin":2371,"stör":2372,"enkel":2373,"chzelf</w>":2374,"ant</w>":2375,"anen</w>":2376,"wet</w>":2377,"zegen</w>":2378,"verdr":2379,"schop</w>":2380,"schre":2381,"schijn</w>":2382,"naô":2383,"zoiets</w>":2384,"zaken</w>":2385,"opnieuw</w>":2386,"ruit</w>":2387,"boven":2388,"maid</w>":2389,"zichzelf</w>":2390,"dichte</w>":2391,"gau</w>":2392,"spo":2393,"spre":2394,"under</w>":2395,"werkelijk</w>":2396,"trien":2397,"duurt</w>":2398,"eerlijk</w>":2399,"stap</w>":2400,"strij":2401,"benen</w>":2402,"ppe</w>":2403,"luister</w>":2404,"vandaan</w>":2405,"laatst</w>":2406,"uwen</w>":2407,"drei</w>":2408,"nijdig</w>":2409,"gebeurde</w>":2410,"dienen</w>":2411,"wolken</w>":2412,"minste</w>":2413,"rechtveer":2414,"steekt</w>":2415,"wonen</w>":2416,"bloemen</w>":2417,"borst</w>":2418,"zorg</w>":2419,"stellen</w>":2420,"plezier</w>":2421,"kkig</w>":2422,"kwampt</w>":2423,"jouw</w>":2424,"burge":2425,"patiënt</w>":2426,"deksel</w>":2427,"benauw":2428,"appel":2429,"ever":2430,"fou":2431,"gor":2432,"gier":2433,"haa":2434,"kil":2435,"kold</w>":2436,"mij":2437,"nui":2438,"pij":2439,"rijk</w>":2440,"ropt</w>":2441,"sun":2442,"too":2443,"tke</w>":2444,"vier</w>":2445,"wu":2446,"zwa":2447,"ôs</w>":2448,"ood":2449,"wacht":2450,"sti":2451,"stor":2452,"engaô</w>":2453,"ijer</w>":2454,"weken</w>":2455,"zeten</w>":2456,"beel":2457,"bese":2458,"bedoe":2459,"schrai":2460,"nei-":2461,"lache":2462,"zoveul</w>":2463,"teil</w>":2464,"tevre":2465,"lieks</w>":2466,"spreken</w>":2467,"spreekt</w>":2468,"lub":2469,"bero":2470,"ienden</w>":2471,"genomen</w>":2472,"zummer":2473,"duur</w>":2474,"achtig</w>":2475,"pait</w>":2476,"sters</w>":2477,"wies</w>":2478,"schelen</w>":2479,"mooi":2480,"wijst</w>":2481,"riek</w>":2482,"ains</w>":2483,"grijze</w>":2484,"anderen</w>":2485,"laifde</w>":2486,"iern</w>":2487,"blauwe</w>":2488,"waai</w>":2489,"blief</w>":2490,"blied</w>":2491,"noast</w>":2492,"haim</w>":2493,"halve</w>":2494,"stoe</w>":2495,"geleden</w>":2496,"grootste</w>":2497,"zomer</w>":2498,"slaap</w>":2499,"aarbaiders</w>":2500,"gewoon</w>":2501,"schurengaô</w>":2502,"nei-boer</w>":2503,"akker</w>":2504,"daa":2505,"dder":2506,"dheid</w>":2507,"ezel</w>":2508,"fkes</w>":2509,"gs":2510,"gan":2511,"gold</w>":2512,"hil":2513,"kwi":2514,"klan":2515,"konden</w>":2516,"lp</w>":2517,"mm":2518,"mil":2519,"noe":2520,"tin":2521,"taô":2522,"t'r</w>":2523,"vôt</w>":2524,"wt</w>":2525,"zaak</w>":2526,"hemel</w>":2527,"oaren</w>":2528,"stoa":2529,"streek</w>":2530,"onen</w>":2531,"ins</w>":2532,"ledi":2533,"leert</w>":2534,"legde</w>":2535,"mes</w>":2536,"meschain</w>":2537,"bel":2538,"bete":2539,"bekend</w>":2540,"begri":2541,"delen</w>":2542,"schrie":2543,"aank</w>":2544,"optil":2545,"broek</w>":2546,"droom</w>":2547,"huur</w>":2548,"jonk</w>":2549,"kloppen</w>":2550,"waarm</w>":2551,"aald</w>":2552,"stekt</w>":2553,"mantel</w>":2554,"kenst</w>":2555,"sloeg</w>":2556,"gelk</w>":2557,"goede</w>":2558,"stuurde</w>":2559,"scheid</w>":2560,"baiden</w>":2561,"wijs</w>":2562,"boel</w>":2563,"dreven</w>":2564,"grijtje</w>":2565,"warme</w>":2566,"helpt</w>":2567,"ziek</w>":2568,"bonden</w>":2569,"middags</w>":2570,"knee":2571,"blauw</w>":2572,"vrijer</w>":2573,"woll</w>":2574,"achterhuis</w>":2575,"roepen</w>":2576,"zoon</w>":2577,"kool</w>":2578,"rechts</w>":2579,"speu":2580,"speul":2581,"zong</w>":2582,"igste</w>":2583,"martje</w>":2584,"grieze</w>":2585,"borrel</w>":2586,"snij</w>":2587,"zomer":2588,"durfde</w>":2589,"dreum</w>":2590,"geval</w>":2591,"stoof</w>":2592,"haalf</w>":2593,"zöl":2594,"sloap</w>":2595,"iedere</w>":2596,"sloten</w>":2597,"hoeshollen</w>":2598,"schrik</w>":2599,"verdrait</w>":2600,"spelen</w>":2601,"vakbondsman</w>":2602,"flink</w>":2603,"levens":2604,"geloven</w>":2605,"vooruit</w>":2606,"enkele</w>":2607,"burgemeester</w>":2608,"bè":2609,"baar":2610,"con":2611,"com":2612,"ex":2613,"glaa":2614,"ikt</w>":2615,"kno":2616,"kwijt</w>":2617,"kwiet</w>":2618,"lk</w>":2619,"nis</w>":2620,"plu":2621,"pier":2622,"rde</w>":2623,"raam</w>":2624,"sd</w>":2625,"soe":2626,"to</w>":2627,"taa":2628,"wus</w>":2629,"zoek</w>":2630,"stui":2631,"ged":2632,"ijke</w>":2633,"onweer</w>":2634,"wester":2635,"weerd</w>":2636,"bestoan</w>":2637,"reis</w>":2638,"deden</w>":2639,"schen</w>":2640,"schie":2641,"neer":2642,"dochte</w>":2643,"uiten</w>":2644,"derde</w>":2645,"aange":2646,"bode</w>":2647,"tele":2648,"zig</w>":2649,"zicht":2650,"zichtig</w>":2651,"hok</w>":2652,"kou</w>":2653,"tri":2654,"tranen</w>":2655,"kleren</w>":2656,"reek":2657,"gelui":2658,"stere</w>":2659,"wild</w>":2660,"geraa":2661,"goeie</w>":2662,"schee":2663,"schei":2664,"scheelt</w>":2665,"ffen</w>":2666,"baide</w>":2667,"loven</w>":2668,"begunt</w>":2669,"begonnen</w>":2670,"laange</w>":2671,"laangs</w>":2672,"volgende</w>":2673,"vanzulf</w>":2674,"vandaag</w>":2675,"huizen</w>":2676,"huilt</w>":2677,"houk</w>":2678,"warm</w>":2679,"velen</w>":2680,"help</w>":2681,"ziezo</w>":2682,"valen</w>":2683,"tik-":2684,"gelukkig</w>":2685,"pet</w>":2686,"stoken</w>":2687,"nergens</w>":2688,"bloed</w>":2689,"tai":2690,"draaide</w>":2691,"vlak</w>":2692,"durft</w>":2693,"sneeuw":2694,"zoeken</w>":2695,"baang</w>":2696,"school</w>":2697,"smok</w>":2698,"bult</w>":2699,"gezond</w>":2700,"zwijgen</w>":2701,"gelegenheid</w>":2702,"begrijp</w>":2703,"everts</w>":2704,"besef</w>":2705,"lachend</w>":2706,"kneep</w>":2707,"co":2708,"dook</w>":2709,"dör":2710,"eg":2711,"echte</w>":2712,"haal</w>":2713,"ik":2714,"if</w>":2715,"jaar":2716,"naam</w>":2717,"pier</w>":2718,"sdag</w>":2719,"smer":2720,"tik</w>":2721,"voar</w>":2722,"veld</w>":2723,"wr":2724,"wien</w>":2725,"waal</w>":2726,"hek</w>":2727,"was":2728,"wagen</w>":2729,"oam</w>":2730,"gedacht</w>":2731,"onrustig</w>":2732,"westen</w>":2733,"besterven</w>":2734,"alen</w>":2735,"verleden</w>":2736,"dekens</w>":2737,"dezelfde</w>":2738,"nieuw":2739,"schan":2740,"schar":2741,"nei</w>":2742,"eltje</w>":2743,"laster</w>":2744,"lachte</w>":2745,"doch</w>":2746,"zocht</w>":2747,"zakken</w>":2748,"wichter</w>":2749,"opeens</w>":2750,"teg</w>":2751,"lichten</w>":2752,"brom":2753,"lust</w>":2754,"jongs</w>":2755,"troa":2756,"kwar":2757,"vast":2758,"klaas</w>":2759,"ducht</w>":2760,"waarken</w>":2761,"hoed</w>":2762,"teren</w>":2763,"bloud</w>":2764,"moand</w>":2765,"bak</w>":2766,"zellen</w>":2767,"slaô":2768,"treft</w>":2769,"oart</w>":2770,"laanger</w>":2771,"ppel</w>":2772,"vandoan</w>":2773,"dommee</w>":2774,"ainmoal</w>":2775,"zoas</w>":2776,"voelde</w>":2777,"gunst</w>":2778,"dokters</w>":2779,"drukt</w>":2780,"grauwe</w>":2781,"wens</w>":2782,"vuilde</w>":2783,"zondag</w>":2784,"brengt</w>":2785,"koffie":2786,"staart</w>":2787,"neudeg</w>":2788,"laôten</w>":2789,"hoogte</w>":2790,"eeuwi":2791,"glas</w>":2792,"zörgen</w>":2793,"grepen</w>":2794,"antwoord</w>":2795,"klinkt</w>":2796,"knieën</w>":2797,"schrob":2798,"kovvie</w>":2799,"milie</w>":2800,"speulen</w>":2801,"geraakt</w>":2802,"ad":2803,"baal</w>":2804,"bond</w>":2805,"boon":2806,"dwar":2807,"doek</w>":2808,"eur</w>":2809,"eden</w>":2810,"eén</w>":2811,"fje</w>":2812,"gl":2813,"glan":2814,"haas</w>":2815,"kme":2816,"kkel</w>":2817,"koek</w>":2818,"molen</w>":2819,"ning</w>":2820,"ocht":2821,"poa":2822,"por":2823,"ploe":2824,"rd</w>":2825,"ser":2826,"sel":2827,"sel</w>":2828,"slie":2829,"soort</w>":2830,"tter</w>":2831,"twaal":2832,"veen</w>":2833,"vaast</w>":2834,"áá":2835,"ôk</w>":2836,"erover</w>":2837,"dain":2838,"dames</w>":2839,"oos</w>":2840,"wassen</w>":2841,"stij":2842,"stom</w>":2843,"sturen</w>":2844,"stonden</w>":2845,"ene":2846,"gebrui":2847,"gewoon":2848,"leeren</w>":2849,"bes":2850,"deuren</w>":2851,"schien":2852,"nao</w>":2853,"dode</w>":2854,"zol":2855,"vraauw":2856,"vroag</w>":2857,"opte</w>":2858,"maor</w>":2859,"ket</w>":2860,"brood":2861,"job":2862,"lijks</w>":2863,"land":2864,"handel</w>":2865,"kost</w>":2866,"hoef</w>":2867,"steit</w>":2868,"steek</w>":2869,"pass":2870,"winnen</w>":2871,"denn</w>":2872,"haarst</w>":2873,"slaan</w>":2874,"sluig</w>":2875,"gere</w>":2876,"wiekme":2877,"kinder":2878,"voorjaar</w>":2879,"loze</w>":2880,"locht</w>":2881,"riet</w>":2882,"afge":2883,"buur":2884,"tenminste</w>":2885,"zoaken</w>":2886,"tse</w>":2887,"middag":2888,"waaien</w>":2889,"daarna</w>":2890,"hoalen</w>":2891,"bliede</w>":2892,"grait</w>":2893,"slet</w>":2894,"fats":2895,"delk</w>":2896,"schoten</w>":2897,"herfst</w>":2898,"ssie</w>":2899,"breng</w>":2900,"boodschap</w>":2901,"mörn</w>":2902,"ftien</w>":2903,"dansen</w>":2904,"mui</w>":2905,"gronin":2906,"knikte</w>":2907,"drokte</w>":2908,"stroat</w>":2909,"dink</w>":2910,"karton":2911,"karton</w>":2912,"gesteld</w>":2913,"drift</w>":2914,"driftig</w>":2915,"huishou":2916,"hinne</w>":2917,"soo</w>":2918,"dampen</w>":2919,"regent</w>":2920,"allenne</w>":2921,"neem</w>":2922,"praatjes</w>":2923,"zwiegen</w>":2924,"moment</w>":2925,"aardappelen</w>":2926,"zölf</w>":2927,"tik-tik</w>":2928,"wiekmeijer</w>":2929,"akel":2930,"breken</w>":2931,"dge":2932,"fte</w>":2933,"fel</w>":2934,"flu":2935,"gte</w>":2936,"gse</w>":2937,"hopen</w>":2938,"ite</w>":2939,"jaagt</w>":2940,"kse</w>":2941,"khaid</w>":2942,"kkend</w>":2943,"laan</w>":2944,"muur</w>":2945,"nend</w>":2946,"pom":2947,"pond</w>":2948,"poot</w>":2949,"punt</w>":2950,"preek</w>":2951,"rö":2952,"rollen</w>":2953,"sc":2954,"sol":2955,"voet</w>":2956,"vig</w>":2957,"vaal":2958,"vlucht</w>":2959,"wö":2960,"wui":2961,"àt</w>":2962,"èl</w>":2963,"ön":2964,"aagd</w>":2965,"erij</w>":2966,"ervan</w>":2967,"daor</w>":2968,"stijf</w>":2969,"stbode</w>":2970,"en-":2971,"ends</w>":2972,"geze":2973,"gemoud</w>":2974,"gevoel</w>":2975,"getrouwd</w>":2976,"onth":2977,"inu</w>":2978,"oug</w>":2979,"ouders</w>":2980,"beledi":2981,"nor":2982,"allen</w>":2983,"vers</w>":2984,"verwachten</w>":2985,"vergi":2986,"haren</w>":2987,"nat</w>":2988,"aarme</w>":2989,"vee":2990,"veeg</w>":2991,"zolang</w>":2992,"wichtje</w>":2993,"aander":2994,"tevoor":2995,"spul":2996,"modder</w>":2997,"bericht</w>":2998,"hangen</w>":2999,"handel":3000,"gena":3001,"ment</w>":3002,"vaste</w>":3003,"dubbe":3004,"eera":3005,"waard</w>":3006,"waarme</w>":3007,"kapi":3008,"pakte</w>":3009,"winters</w>":3010,"wilden</w>":3011,"blo":3012,"stak</w>":3013,"stapte</w>":3014,"wiefke</w>":3015,"harde</w>":3016,"vooral</w>":3017,"slap</w>":3018,"vogels</w>":3019,"bouk</w>":3020,"jak</w>":3021,"telkens</w>":3022,"huilen</w>":3023,"ttend</w>":3024,"ttert</w>":3025,"bui</w>":3026,"ainigste</w>":3027,"grijs</w>":3028,"grode</w>":3029,"vingers</w>":3030,"doag</w>":3031,"kist</w>":3032,"éér</w>":3033,"iers</w>":3034,"middel":3035,"vrije</w>":3036,"uut":3037,"ontinu</w>":3038,"stoer</w>":3039,"vree</w>":3040,"fee":3041,"meisjes</w>":3042,"koeien</w>":3043,"toavel</w>":3044,"langzaam</w>":3045,"sums</w>":3046,"verkeerde</w>":3047,"rondom</w>":3048,"laôt</w>":3049,"krist":3050,"trouwde</w>":3051,"vreemde</w>":3052,"schrijven</w>":3053,"neemt</w>":3054,"prooten</w>":3055,"woest</w>":3056,"verkering</w>":3057,"pekelder</w>":3058,"pijp</w>":3059,"mooiste</w>":3060,"troanen</w>":3061,"tevoorschijn</w>":3062,"as":3063,"atie</w>":3064,"be</w>":3065,"bke</w>":3066,"d-":3067,"dàt</w>":3068,"ek":3069,"fo":3070,"fer":3071,"gle":3072,"g'n</w>":3073,"ho</w>":3074,"houd</w>":3075,"koar</w>":3076,"kui":3077,"knij":3078,"konnen</w>":3079,"lijn</w>":3080,"mol":3081,"moor":3082,"mmen</w>":3083,"maal":3084,"moord</w>":3085,"nander</w>":3086,"pien</w>":3087,"pop</w>":3088,"plo":3089,"plek</w>":3090,"raar</w>":3091,"roar</w>":3092,"rol":3093,"sde</w>":3094,"thoes</w>":3095,"tiende</w>":3096,"uwe":3097,"vaa":3098,"vle":3099,"vijf</w>":3100,"wijn</w>":3101,"wonder":3102,"zwoar</w>":3103,"ôm</w>":3104,"ern</w>":3105,"erop</w>":3106,"ermee</w>":3107,"dal</w>":3108,"daôn</w>":3109,"dainen</w>":3110,"oop</w>":3111,"stof</w>":3112,"stied</w>":3113,"steer":3114,"stige</w>":3115,"gema":3116,"gele</w>":3117,"geslagen</w>":3118,"weide</w>":3119,"mekoar</w>":3120,"behoor":3121,"bestaan</w>":3122,"bestuur":3123,"bezeten</w>":3124,"verba":3125,"verlegen</w>":3126,"verdienen</w>":3127,"verbeel":3128,"hait</w>":3129,"toren</w>":3130,"schij":3131,"neg</w>":3132,"neder":3133,"neel</w>":3134,"doende</w>":3135,"vet</w>":3136,"vraagt</w>":3137,"grin":3138,"gries</w>":3139,"aante</w>":3140,"aankommen</w>":3141,"opp":3142,"opa</w>":3143,"komende</w>":3144,"boden</w>":3145,"temin":3146,"lied</w>":3147,"spijt</w>":3148,"dromen</w>":3149,"most</w>":3150,"jongste</w>":3151,"zucht</w>":3152,"zummer</w>":3153,"werkt</w>":3154,"koe</w>":3155,"duvel</w>":3156,"loofd</w>":3157,"waark":3158,"waarheid</w>":3159,"steu":3160,"kenden</w>":3161,"papier</w>":3162,"hooge</w>":3163,"reef</w>":3164,"reed</w>":3165,"teru":3166,"schepen</w>":3167,"moan":3168,"harmon":3169,"kleuren</w>":3170,"moos</w>":3171,"voordat</w>":3172,"beneden</w>":3173,"wos</w>":3174,"jaô</w>":3175,"jacht</w>":3176,"jagt</w>":3177,"impel</w>":3178,"huid</w>":3179,"zulke</w>":3180,"boek</w>":3181,"roer</w>":3182,"gezichten</w>":3183,"schapen</w>":3184,"hoorn</w>":3185,"tske</w>":3186,"nije</w>":3187,"groen</w>":3188,"vind</w>":3189,"vindt</w>":3190,"doalek</w>":3191,"gungt</w>":3192,"laif</w>":3193,"aôven":3194,"prakke":3195,"bladeren</w>":3196,"brieken</w>":3197,"vrijheid</w>":3198,"hoal</w>":3199,"pot":3200,"poten</w>":3201,"trouw</w>":3202,"springen</w>":3203,"dragen</w>":3204,"trole":3205,"gods</w>":3206,"melken</w>":3207,"wegge":3208,"tegenover</w>":3209,"vertel</w>":3210,"toestand</w>":3211,"woont</w>":3212,"woonde</w>":3213,"haôze</w>":3214,"schaatsen</w>":3215,"smid</w>":3216,"bbelt</w>":3217,"snikt</w>":3218,"zön":3219,"eefkes</w>":3220,"geboren</w>":3221,"stuurman</w>":3222,"henderk</w>":3223,"auto</w>":3224,"noorden</w>":3225,"moeilijk</w>":3226,"jonges</w>":3227,"begriepen</w>":3228,"nachts</w>":3229,"lammers</w>":3230,"drank</w>":3231,"kantoor</w>":3232,"troost</w>":3233,"foei</w>":3234,"bovendien</w>":3235,"spoken</w>":3236,"trientke</w>":3237,"tooneel</w>":3238,"storm</w>":3239,"lubbert</w>":3240,"egbert</w>":3241,"'eur</w>":3242,"ac":3243,"acht</w>":3244,"boot</w>":3245,"dde":3246,"duren</w>":3247,"fien</w>":3248,"gol":3249,"hi":3250,"hier":3251,"haalt</w>":3252,"ist</w>":3253,"kste</w>":3254,"kopen</w>":3255,"lle</w>":3256,"ling</w>":3257,"mö":3258,"mö</w>":3259,"mijn":3260,"môs</w>":3261,"méér</w>":3262,"nó":3263,"nkander</w>":3264,"oze</w>":3265,"preek":3266,"rre":3267,"rook</w>":3268,"snee</w>":3269,"twij":3270,"tzelfde</w>":3271,"uk</w>":3272,"ude</w>":3273,"uur":3274,"èl":3275,"hee":3276,"hef</w>":3277,"hezze</w>":3278,"daier</w>":3279,"dauw</w>":3280,"iedag</w>":3281,"sta</w>":3282,"stte</w>":3283,"stru":3284,"stal</w>":3285,"enie":3286,"gezet</w>":3287,"oep</w>":3288,"lei":3289,"levend</w>":3290,"meen</w>":3291,"medie</w>":3292,"beeld</w>":3293,"bels</w>":3294,"alweer</w>":3295,"verre</w>":3296,"verant":3297,"reau</w>":3298,"ommelt</w>":3299,"schol</w>":3300,"schort</w>":3301,"nemt</w>":3302,"nauw</w>":3303,"lagen</w>":3304,"uite":3305,"zoenen</w>":3306,"zai":3307,"bod</w>":3308,"rait</w>":3309,"zicht</w>":3310,"dichter</w>":3311,"gaten</w>":3312,"spoe":3313,"under":3314,"dronken</w>":3315,"mogen</w>":3316,"luu</w>":3317,"beren</w>":3318,"hul</w>":3319,"gene</w>":3320,"weren</w>":3321,"kroop</w>":3322,"trof</w>":3323,"vai":3324,"klonk</w>":3325,"klopte</w>":3326,"kerke</w>":3327,"loon</w>":3328,"waarop</w>":3329,"hoekje</w>":3330,"merkt</w>":3331,"merhand</w>":3332,"weetj":3333,"para":3334,"proe":3335,"prui":3336,"haarn</w>":3337,"willoos</w>":3338,"kins</w>":3339,"stro</w>":3340,"bainen</w>":3341,"the</w>":3342,"oard</w>":3343,"vogel</w>":3344,"laangk</w>":3345,"wijten</w>":3346,"richt</w>":3347,"vandoag</w>":3348,"boeken</w>":3349,"bureau</w>":3350,"dreide</w>":3351,"schadu":3352,"lende</w>":3353,"krekt</w>":3354,"helder":3355,"hemd</w>":3356,"klain</w>":3357,"bonen</w>":3358,"bijbel</w>":3359,"drupt</w>":3360,"zooas</w>":3361,"noam</w>":3362,"hallo</w>":3363,"baaide</w>":3364,"vrede</w>":3365,"vuilt</w>":3366,"brugge":3367,"gedachte</w>":3368,"beetken</w>":3369,"einde</w>":3370,"könd</w>":3371,"schudt</w>":3372,"schudde</w>":3373,"hijl</w>":3374,"biebel</w>":3375,"zeeman</w>":3376,"road</w>":3377,"zware</w>":3378,"leuf</w>":3379,"dreumen</w>":3380,"muik</w>":3381,"vaart</w>":3382,"verstan":3383,"vouten</w>":3384,"zörg</w>":3385,"gooid</w>":3386,"gooide</w>":3387,"zuiken</w>":3388,"huishouden</w>":3389,"schipper</w>":3390,"kruipt</w>":3391,"doodstil</w>":3392,"tweeën</w>":3393,"snokt</w>":3394,"tjewel</w>":3395,"oavends</w>":3396,"zwaarde</w>":3397,"sprak</w>":3398,"streu":3399,"boenders</w>":3400,"knoo":3401,"bounders</w>":3402,"zachtjes</w>":3403,"óór</w>":3404,"taiken</w>":3405,"dwars</w>":3406,"porte":3407,"behoorlijk</w>":3408,"uitein":3409,"weetjenie":3410,"-ver":3411,"bun":3412,"baand</w>":3413,"cin":3414,"d'n</w>":3415,"dste</w>":3416,"dwoa":3417,"dát</w>":3418,"ess":3419,"fus":3420,"gal":3421,"gden</w>":3422,"greep</w>":3423,"glijdt</w>":3424,"hals</w>":3425,"hör":3426,"ikke</w>":3427,"joar":3428,"jene":3429,"kol":3430,"l'n</w>":3431,"nij</w>":3432,"ntje</w>":3433,"oe</w>":3434,"ot</w>":3435,"plu</w>":3436,"rt</w>":3437,"rent</w>":3438,"sen":3439,"slee":3440,"sse</w>":3441,"sig":3442,"simpel</w>":3443,"ttje</w>":3444,"twin":3445,"ving</w>":3446,"var":3447,"vlin":3448,"voart</w>":3449,"vóór</w>":3450,"wien":3451,"zwaait</w>":3452,"éven</w>":3453,"hel</w>":3454,"heftig</w>":3455,"hetzelfde</w>":3456,"das</w>":3457,"oaltje</w>":3458,"stel</w>":3459,"staal</w>":3460,"stree":3461,"steld</w>":3462,"streep</w>":3463,"stenen</w>":3464,"enne</w>":3465,"gevol":3466,"gelaten</w>":3467,"getrokken</w>":3468,"gevallen</w>":3469,"gevuil</w>":3470,"angst</w>":3471,"oneel</w>":3472,"wedu":3473,"wezen":3474,"ouder":3475,"zettend</w>":3476,"beda":3477,"bemoe":3478,"beter":3479,"belee":3480,"betoa":3481,"bezig</w>":3482,"bekenden</w>":3483,"verre":3484,"verlie":3485,"vertrekken</w>":3486,"vertrokken</w>":3487,"verdrij":3488,"vertrouwen</w>":3489,"verdainen</w>":3490,"verloofd</w>":3491,"repen</w>":3492,"rechte</w>":3493,"niedig</w>":3494,"toren":3495,"totaal</w>":3496,"schaar":3497,"nevel</w>":3498,"lagt</w>":3499,"veer</w>":3500,"zagen</w>":3501,"ure</w>":3502,"oorlo":3503,"bok":3504,"bok</w>":3505,"maker</w>":3506,"dighaid</w>":3507,"gal</w>":3508,"keer":3509,"spek</w>":3510,"spul</w>":3511,"sporen</w>":3512,"mog</w>":3513,"hankelijk</w>":3514,"zuu":3515,"zukke</w>":3516,"trie":3517,"duvel":3518,"keren</w>":3519,"kerton":3520,"eerd</w>":3521,"hoezen</w>":3522,"hoeveel</w>":3523,"manne":3524,"kast</w>":3525,"ken-":3526,"winkel":3527,"hoof":3528,"hooi</w>":3529,"dens</w>":3530,"missen</w>":3531,"slui":3532,"sterk</w>":3533,"sterke</w>":3534,"leef</w>":3535,"leest</w>":3536,"goed":3537,"staôn</w>":3538,"stukje</w>":3539,"stuurd</w>":3540,"wiebke</w>":3541,"schen":3542,"overgeven</w>":3543,"stromen</w>":3544,"mouwen</w>":3545,"zelfs</w>":3546,"mooier</w>":3547,"voorzichtig</w>":3548,"maag</w>":3549,"loket</w>":3550,"vogel":3551,"voldoende</w>":3552,"richten</w>":3553,"eenzaam</w>":3554,"luid</w>":3555,"luistert</w>":3556,"woordig</w>":3557,"huifs</w>":3558,"buik</w>":3559,"buurt</w>":3560,"rozen</w>":3561,"rogge</w>":3562,"ainaarm</w>":3563,"schaid</w>":3564,"tsje</w>":3565,"laiver</w>":3566,"middel</w>":3567,"aôvend</w>":3568,"vrijerij</w>":3569,"achterhoes</w>":3570,"jans</w>":3571,"rouw":3572,"post</w>":3573,"wenen</w>":3574,"weers":3575,"rechtop</w>":3576,"sleu":3577,"ontde":3578,"ontzettend</w>":3579,"duidelijk</w>":3580,"duistere</w>":3581,"familie</w>":3582,"spek":3583,"speel":3584,"goiedag</w>":3585,"griep</w>":3586,"mensken</w>":3587,"mper</w>":3588,"boomen</w>":3589,"schuur":3590,"bleem</w>":3591,"zingt</w>":3592,"zengoa</w>":3593,"schounen</w>":3594,"langza":3595,"ploatske</w>":3596,"plaatsje</w>":3597,"zwart</w>":3598,"brande":3599,"brandt</w>":3600,"dreuge</w>":3601,"gesprek</w>":3602,"raakt</w>":3603,"proberen</w>":3604,"probleem</w>":3605,"stook":3606,"nuver</w>":3607,"kerkhof</w>":3608,"avond":3609,"schoapen</w>":3610,"hoogste</w>":3611,"glad</w>":3612,"lichting</w>":3613,"sloapen</w>":3614,"stoule</w>":3615,"vout</w>":3616,"dijp</w>":3617,"greide</w>":3618,"blinkt</w>":3619,"schrok</w>":3620,"tweetjewel</w>":3621,"vliegt</w>":3622,"schreef</w>":3623,"maôkt</w>":3624,"richting</w>":3625,"kalf</w>":3626,"vakbondsbestuur":3627,"dienstbode</w>":3628,"maart</w>":3629,"gemeen":3630,"kaalf</w>":3631,"koopman</w>":3632,"fran":3633,"börgeme":3634,"kofvie</w>":3635,"begriep</w>":3636,"verkeren</w>":3637,"vrucht</w>":3638,"rechtvaardige</w>":3639,"veendam</w>":3640,"visite</w>":3641,"schoener</w>":3642,"störm</w>":3643,"schreven</w>":3644,"strijkt</w>":3645,"rechtveerdige</w>":3646,"benauwde</w>":3647,"fout</w>":3648,"tevreden</w>":3649,"beroerde</w>":3650,"kwik":3651,"taôvel</w>":3652,"schrieven</w>":3653,"bèr</w>":3654,"pierke</w>":3655,"cob</w>":3656,"kwart":3657,"schrobbers</w>":3658,"twaalf</w>":3659,"gebruiken</w>":3660,"wör</w>":3661,"eerappels</w>":3662,"schaduw</w>":3663,"bruggetje</w>":3664,"uiteindelijk</w>":3665,"weetjenietweetjewel</w>":3666,"fusie</w>":3667,"jenever</w>":3668,"sleept</w>":3669,"-op</w>":3670,"at</w>":3671,"ade":3672,"aier</w>":3673,"baan</w>":3674,"bof</w>":3675,"bier</w>":3676,"buren</w>":3677,"dwa":3678,"dier</w>":3679,"dijk</w>":3680,"floo":3681,"g-":3682,"gaa":3683,"goot</w>":3684,"gheden</w>":3685,"hon":3686,"hil</w>":3687,"heren</w>":3688,"haast</w>":3689,"honden</w>":3690,"iii</w>":3691,"kko":3692,"kolle</w>":3693,"ller</w>":3694,"mme</w>":3695,"oen</w>":3696,"rij</w>":3697,"ril":3698,"sal":3699,"snie":3700,"tui":3701,"toon":3702,"toon</w>":3703,"ukt</w>":3704,"va</w>":3705,"vil</w>":3706,"vonden</w>":3707,"vloe":3708,"vonner</w>":3709,"woog</w>":3710,"wát</w>":3711,"zer":3712,"zing</w>":3713,"zweet</w>":3714,"zand</w>":3715,"zang</w>":3716,"erger</w>":3717,"heg</w>":3718,"damp</w>":3719,"wai</w>":3720,"oaden</w>":3721,"oale</w>":3722,"stje</w>":3723,"star":3724,"stoppen</w>":3725,"enk</w>":3726,"gek":3727,"gedoe</w>":3728,"gesla":3729,"gebru":3730,"gelijke</w>":3731,"gebracht</w>":3732,"gewonnen</w>":3733,"gehei":3734,"ongeluk</w>":3735,"wei":3736,"inge":3737,"inig</w>":3738,"leerde</w>":3739,"met":3740,"zeg":3741,"zeven":3742,"zeun</w>":3743,"bedaar":3744,"bekennen</w>":3745,"bedrie":3746,"all":3747,"alte":3748,"aldoor</w>":3749,"verte</w>":3750,"verra":3751,"vervel":3752,"verspe":3753,"vergee":3754,"vernomen</w>":3755,"rekt</w>":3756,"regel":3757,"omlaag</w>":3758,"schoet</w>":3759,"schul</w>":3760,"lawaai</w>":3761,"dol</w>":3762,"veu":3763,"vee</w>":3764,"uiter":3765,"vrö":3766,"vroren</w>":3767,"vrienden</w>":3768,"zater":3769,"grof</w>":3770,"grön":3771,"ders":3772,"derij":3773,"moeders</w>":3774,"ol-":3775,"oll</w>":3776,"kombof</w>":3777,"teerd</w>":3778,"rap</w>":3779,"mao":3780,"mainen</w>":3781,"digheid</w>":3782,"lieke</w>":3783,"keun":3784,"span":3785,"bri":3786,"droeg</w>":3787,"drommel</w>":3788,"lijf</w>":3789,"mogelijk</w>":3790,"hand":3791,"menschen</w>":3792,"zuks</w>":3793,"krom</w>":3794,"koft</w>":3795,"vak</w>":3796,"kloa":3797,"kermis</w>":3798,"waarachtig</w>":3799,"meren</w>":3800,"merkte</w>":3801,"weeg</w>":3802,"wind":3803,"wang</w>":3804,"terd</w>":3805,"sloe":3806,"sluit":3807,"venster":3808,"goeien":3809,"wieken</w>":3810,"strie":3811,"mouder</w>":3812,"zels</w>":3813,"harten</w>":3814,"klein":3815,"treuren</w>":3816,"rieden</w>":3817,"jaôn</w>":3818,"jammer":3819,"vanavond</w>":3820,"afscheid</w>":3821,"afhankelijk</w>":3822,"huisje</w>":3823,"boes":3824,"houveul</w>":3825,"uwd</w>":3826,"rode</w>":3827,"gezichte</w>":3828,"ainzoam</w>":3829,"douk</w>":3830,"tsk</w>":3831,"kreles</w>":3832,"voeden</w>":3833,"voelen</w>":3834,"helder</w>":3835,"iers":3836,"ierde</w>":3837,"klagen</w>":3838,"diek</w>":3839,"pracht":3840,"blazen</w>":3841,"jannes</w>":3842,"geluud</w>":3843,"recht-op</w>":3844,"noatuur</w>":3845,"duizend</w>":3846,"vreten</w>":3847,"pers</w>":3848,"vuist</w>":3849,"vuilen</w>":3850,"vuisten</w>":3851,"gelegen</w>":3852,"schikte</w>":3853,"bizze</w>":3854,"sprongen</w>":3855,"schoenen</w>":3856,"koren":3857,"draagt</w>":3858,"draaid</w>":3859,"herrie</w>":3860,"igheid</w>":3861,"strak</w>":3862,"groot":3863,"griepen</w>":3864,"boog</w>":3865,"melk</w>":3866,"hiele</w>":3867,"hielp</w>":3868,"doezend</w>":3869,"stoef</w>":3870,"tegenwoordig</w>":3871,"joap</w>":3872,"staark</w>":3873,"staarke</w>":3874,"neuze</w>":3875,"biet</w>":3876,"schouder</w>":3877,"vioo":3878,"dank":3879,"tuurlek</w>":3880,"raad</w>":3881,"trapt</w>":3882,"dringt</w>":3883,"probe":3884,"verdiend</w>":3885,"giert</w>":3886,"rooien</w>":3887,"drokke</w>":3888,"colle":3889,"psel</w>":3890,"gebleven</w>":3891,"fieke</w>":3892,"smeer":3893,"koning</w>":3894,"trilde</w>":3895,"noord":3896,"vlogen</w>":3897,"verdragen</w>":3898,"richtploatske</w>":3899,"richtplaatsje</w>":3900,"t-er</w>":3901,"heurst</w>":3902,"kört</w>":3903,"meulen</w>":3904,"meugelk</w>":3905,"gript</w>":3906,"scheuvel":3907,"flinke</w>":3908,"stomme</w>":3909,"allennig</w>":3910,"schoonzuster</w>":3911,"maanj</w>":3912,"pootjes</w>":3913,"stenwind</w>":3914,"spinnen</w>":3915,"sjom":3916,"tallen</w>":3917,"bloumen</w>":3918,"rechtvaardig</w>":3919,"scholl</w>":3920,"bounder</w>":3921,"felle</w>":3922,"zóó</w>":3923,"schrikt</w>":3924,"spouken</w>":3925,"vrouwtje</w>":3926,"personeel</w>":3927,"hille</w>":3928,"glaas</w>":3929,"telef":3930,"geluid</w>":3931,"zolder</w>":3932,"vraauwlu</w>":3933,"gronings</w>":3934,"huishouding</w>":3935,"gezeur</w>":3936,"spullen</w>":3937,"kristjaôn</w>":3938,"harmoni":3939,"acc":3940,"nóg</w>":3941,"verstandig</w>":3942,"sigaar</w>":3943,"'re</w>":3944,"ab":3945,"at":3946,"amer":3947,"b'n</w>":3948,"bloot</w>":3949,"dweg</w>":3950,"ddel":3951,"dschop</w>":3952,"em":3953,"eil":3954,"fijn</w>":3955,"fiets</w>":3956,"fluu":3957,"gleden</w>":3958,"glieden</w>":3959,"hm</w>":3960,"haan":3961,"ize</w>":3962,"jaagd</w>":3963,"ksch":3964,"kheid</w>":3965,"kki":3966,"kfloo":3967,"lden</w>":3968,"lingen</w>":3969,"ltjes</w>":3970,"mden</w>":3971,"mber":3972,"mber</w>":3973,"mmel</w>":3974,"pru":3975,"pjes</w>":3976,"plui":3977,"plicht</w>":3978,"sie</w>":3979,"sun</w>":3980,"sgier":3981,"tur":3982,"tend</w>":3983,"ut</w>":3984,"vlij":3985,"vör":3986,"vvel":3987,"voog":3988,"wrij":3989,"zwait</w>":3990,"zoon":3991,"zwoar":3992,"ène</w>":3993,"ïns</w>":3994,"ôgge</w>":3995,"öt</w>":3996,"aaide</w>":3997,"ern":3998,"eraan</w>":3999,"erig</w>":4000,"eraf</w>":4001,"ergens</w>":4002,"stonnen</w>":4003,"end":4004,"eng</w>":4005,"geel</w>":4006,"gewon":4007,"gemain":4008,"gekocht</w>":4009,"gebonden</w>":4010,"ang":4011,"anner":4012,"onvrouw</w>":4013,"wee</w>":4014,"wedde</w>":4015,"weelde</w>":4016,"ink</w>":4017,"innen</w>":4018,"leerd</w>":4019,"oun</w>":4020,"ouder</w>":4021,"meen":4022,"zeker":4023,"zeurt</w>":4024,"bege":4025,"beve":4026,"bedenken</w>":4027,"bestellen</w>":4028,"behalve</w>":4029,"nogal</w>":4030,"vere</w>":4031,"verza":4032,"vertrek</w>":4033,"verkocht</w>":4034,"verrek</w>":4035,"vertrouwde</w>":4036,"vermoord</w>":4037,"verlichting</w>":4038,"reit</w>":4039,"reert</w>":4040,"regel</w>":4041,"hakken</w>":4042,"tot":4043,"togen</w>":4044,"tober</w>":4045,"toene</w>":4046,"schaar</w>":4047,"schul":4048,"schijn":4049,"nek</w>":4050,"neis</w>":4051,"namp</w>":4052,"lap</w>":4053,"laid</w>":4054,"dof</w>":4055,"vrien":4056,"vraô":4057,"zaô":4058,"zame</w>":4059,"zatten</w>":4060,"orre</w>":4061,"grui":4062,"graf</w>":4063,"dertied</w>":4064,"aanner</w>":4065,"oper":4066,"opkeek</w>":4067,"opkomende</w>":4068,"rusten</w>":4069,"olt</w>":4070,"oller</w>":4071,"bos</w>":4072,"ram":4073,"rapp":4074,"mak</w>":4075,"main</w>":4076,"digen</w>":4077,"liepen</w>":4078,"liedje</w>":4079,"sproken</w>":4080,"spieren</w>":4081,"drij</w>":4082,"drang</w>":4083,"droog</w>":4084,"draank</w>":4085,"lijf":4086,"mot</w>":4087,"moto":4088,"mozes</w>":4089,"lusteren</w>":4090,"lustern</w>":4091,"lummel</w>":4092,"bere":4093,"berg</w>":4094,"berends</w>":4095,"hulp</w>":4096,"huzengoa</w>":4097,"genoe":4098,"zuver</w>":4099,"zugt</w>":4100,"kringen</w>":4101,"krant</w>":4102,"kralen</w>":4103,"arm":4104,"dun</w>":4105,"duur":4106,"d'olle</w>":4107,"waarsch":4108,"steunt</w>":4109,"manieren</w>":4110,"kaô":4111,"kassie</w>":4112,"passen</w>":4113,"dent</w>":4114,"tijden</w>":4115,"haarde</w>":4116,"sterd</w>":4117,"wilgen</w>":4118,"wilst</w>":4119,"blom":4120,"bloaren</w>":4121,"gericht</w>":4122,"stad":4123,"stam</w>":4124,"wiel</w>":4125,"wiede</w>":4126,"scheppen</w>":4127,"schepsel</w>":4128,"stroe":4129,"strikt</w>":4130,"bai</w>":4131,"kleurt</w>":4132,"voorjaar":4133,"lot</w>":4134,"loft</w>":4135,"von</w>":4136,"begrepen</w>":4137,"beginnen</w>":4138,"volgens</w>":4139,"rimp":4140,"bouw":4141,"bouwen</w>":4142,"luiken</w>":4143,"luisterde</w>":4144,"vannacht</w>":4145,"telt</w>":4146,"zulm</w>":4147,"buten</w>":4148,"woater":4149,"schai":4150,"tsie</w>":4151,"voesten</w>":4152,"vinger</w>":4153,"twei":4154,"klaôr</w>":4155,"klamme</w>":4156,"bonte</w>":4157,"bonte":4158,"knepen</w>":4159,"ôlle</w>":4160,"vrijwel</w>":4161,"daarvoor</w>":4162,"wolk</w>":4163,"wolde</w>":4164,"achterover</w>":4165,"roep</w>":4166,"proatjes</w>":4167,"zooveul</w>":4168,"sec":4169,"see</w>":4170,"septe":4171,"bliek</w>":4172,"blieft</w>":4173,"grap</w>":4174,"grauw</w>":4175,"vragt</w>":4176,"rijke</w>":4177,"rijzen</w>":4178,"slecht":4179,"stoven</w>":4180,"steevast</w>":4181,"trouwens</w>":4182,"fei":4183,"zongen</w>":4184,"zondag":4185,"nerk</w>":4186,"bloei</w>":4187,"sproa":4188,"schobbe":4189,"korf</w>":4190,"mark</w>":4191,"borre":4192,"mpje</w>":4193,"boom":4194,"melken-":4195,"mörgens</w>":4196,"bleek</w>":4197,"zinnig</w>":4198,"stelt</w>":4199,"durven</w>":4200,"schoule</w>":4201,"langzoam</w>":4202,"dank</w>":4203,"leugen</w>":4204,"leuven</w>":4205,"branden</w>":4206,"welke</w>":4207,"raakte</w>":4208,"sukkel</w>":4209,"samen</w>":4210,"schaats":4211,"proc":4212,"rente</w>":4213,"rond":4214,"vorigen</w>":4215,"stoom":4216,"hailtied</w>":4217,"kerkvoog":4218,"aiwi":4219,"snik":4220,"ongedu":4221,"ongeveer</w>":4222,"verdwenen</w>":4223,"verlangt</w>":4224,"verlangde</w>":4225,"schoof</w>":4226,"gooien</w>":4227,"blind</w>":4228,"plat</w>":4229,"tweede</w>":4230,"maôken</w>":4231,"drijven</w>":4232,"fiets":4233,"aauwen</w>":4234,"augu":4235,"raip</w>":4236,"vreemd</w>":4237,"oavens</w>":4238,"aarbaider</w>":4239,"broeder</w>":4240,"waôr":4241,"christine</w>":4242,"klinken</w>":4243,"glidt</w>":4244,"kraai</w>":4245,"fris</w>":4246,"poes</w>":4247,"vijftien</w>":4248,"vlugt</w>":4249,"stopte</w>":4250,"vruchten</w>":4251,"boender</w>":4252,"schemering</w>":4253,"flikfloo":4254,"paarden":4255,"dichterbij</w>":4256,"votgoan</w>":4257,"evenmin</w>":4258,"schilt</w>":4259,"vrunden</w>":4260,"plan</w>":4261,"slijf</w>":4262,"beloofd</w>":4263,"verwonderd</w>":4264,"stroopt</w>":4265,"jaôren</w>":4266,"schreiend</w>":4267,"benauwd</w>":4268,"haastig</w>":4269,"schraiwen</w>":4270,"gangen</w>":4271,"begrip":4272,"optilon</w>":4273,"optilonvrouw</w>":4274,"extr":4275,"bromt</w>":4276,"ochtend</w>":4277,"jobk</w>":4278,"kartonfabriek</w>":4279,"soluut</w>":4280,"kapite":4281,"feest</w>":4282,"moorden":4283,"vlegel</w>":4284,"teminnend</w>":4285,"troledokters</w>":4286,"èlske</w>":4287,"paraplu</w>":4288,"vakbondsbestuurder</w>":4289,"börgemester</w>":4290,"altemaôl</w>":4291,"vervelend</w>":4292,"grönne":4293,"sluitend</w>":4294,"goeiendag</w>":4295,"boeskool</w>":4296,"telefoon</w>":4297,"gewone</w>":4298,"schobbejak</w>":4299,"melken-geertruud</w>":4300,"augustu":4301,"'ren</w>":4302,"aig":4303,"blan":4304,"boan</w>":4305,"breekt</w>":4306,"ce</w>":4307,"continu</w>":4308,"dó":4309,"dden":4310,"dreef</w>":4311,"fi":4312,"fgen":4313,"fri":4314,"fiene</w>":4315,"gil":4316,"gliek</w>":4317,"hè":4318,"haat</w>":4319,"honder":4320,"jà</w>":4321,"kie</w>":4322,"kas</w>":4323,"kwij":4324,"koude</w>":4325,"kko</w>":4326,"lte</w>":4327,"maand</w>":4328,"nten</w>":4329,"num":4330,"ode</w>":4331,"p-":4332,"paal</w>":4333,"pels</w>":4334,"plaô":4335,"rand</w>":4336,"raak</w>":4337,"s-":4338,"soo":4339,"sui":4340,"swaar":4341,"skop</w>":4342,"sluit</w>":4343,"sens</w>":4344,"t'":4345,"tte":4346,"tien":4347,"tar":4348,"toaf":4349,"uen</w>":4350,"uten</w>":4351,"val</w>":4352,"vloo":4353,"vul</w>":4354,"zan":4355,"zwer":4356,"zôk</w>":4357,"ôg</w>":4358,"ötte</w>":4359,"erte</w>":4360,"erom</w>":4361,"ervoor</w>":4362,"heks</w>":4363,"dast</w>":4364,"dammer</w>":4365,"iet</w>":4366,"water":4367,"oare":4368,"stoa</w>":4369,"stoet":4370,"enor":4371,"chin":4372,"chies</w>":4373,"gewoar</w>":4374,"gehouden</w>":4375,"gepraat</w>":4376,"ijns</w>":4377,"oepen</w>":4378,"onno":4379,"onkt</w>":4380,"wege</w>":4381,"weert</w>":4382,"welijk</w>":4383,"inter":4384,"leke</w>":4385,"leger</w>":4386,"oul</w>":4387,"meter</w>":4388,"meende</w>":4389,"zeden</w>":4390,"zeven</w>":4391,"zegs</w>":4392,"zeilen</w>":4393,"bep":4394,"bet":4395,"best":4396,"begr":4397,"bedu":4398,"beleven</w>":4399,"bezat</w>":4400,"beurt</w>":4401,"bedan":4402,"beleeft</w>":4403,"begrijpt</w>":4404,"besloten</w>":4405,"bezoek</w>":4406,"vers":4407,"vert</w>":4408,"veren</w>":4409,"verde</w>":4410,"verij</w>":4411,"verve":4412,"verging</w>":4413,"verbaa":4414,"veranderen</w>":4415,"verkopen</w>":4416,"reu":4417,"haz":4418,"dele</w>":4419,"dels</w>":4420,"schim":4421,"schroa":4422,"netuurlek</w>":4423,"eling</w>":4424,"nar":4425,"natte</w>":4426,"natuur</w>":4427,"lappen</w>":4428,"docht":4429,"veul":4430,"vriend</w>":4431,"zak</w>":4432,"zaik</w>":4433,"zakt</w>":4434,"zachter</w>":4435,"orden":4436,"groag</w>":4437,"dert</w>":4438,"aandelen</w>":4439,"open":4440,"ophouden</w>":4441,"ophollen</w>":4442,"moetje</w>":4443,"chtel":4444,"ooren</w>":4445,"bos":4446,"bot</w>":4447,"tekenen</w>":4448,"rad</w>":4449,"rare</w>":4450,"mai</w>":4451,"maker":4452,"maggen</w>":4453,"makkel":4454,"lige</w>":4455,"ligen":4456,"diligen":4457,"liedjes</w>":4458,"gasten</w>":4459,"keur":4460,"nige</w>":4461,"spi":4462,"spier</w>":4463,"spai":4464,"brijf</w>":4465,"droagen</w>":4466,"dronk</w>":4467,"mot":4468,"lut</w>":4469,"lukken</w>":4470,"jong":4471,"kroa":4472,"kran":4473,"krim":4474,"krig":4475,"vatt":4476,"klom":4477,"trugien</w>":4478,"illen</w>":4479,"waarkt</w>":4480,"hoeske</w>":4481,"stevig</w>":4482,"weegt</w>":4483,"kache":4484,"katten</w>":4485,"kapot</w>":4486,"kapte":4487,"winden</w>":4488,"wangen</w>":4489,"haarder</w>":4490,"sloug</w>":4491,"sterren</w>":4492,"geren</w>":4493,"stukken</w>":4494,"stumper</w>":4495,"tuss":4496,"bakker</w>":4497,"voorkamer</w>":4498,"oarig</w>":4499,"kelt</w>":4500,"kelen</w>":4501,"begin</w>":4502,"laang</w>":4503,"wijd</w>":4504,"wod</w>":4505,"bouken</w>":4506,"bounen</w>":4507,"riepen</w>":4508,"jaze</w>":4509,"jazeker</w>":4510,"onderweg</w>":4511,"ondergang</w>":4512,"huil</w>":4513,"huift</w>":4514,"huilde</w>":4515,"zuls</w>":4516,"veuraal</w>":4517,"veuroet</w>":4518,"buien</w>":4519,"roy":4520,"drei":4521,"gezichtje</w>":4522,"ainlieks</w>":4523,"schaif</w>":4524,"sneden</w>":4525,"sneller</w>":4526,"laifst</w>":4527,"uitgaan</w>":4528,"uitsluitend</w>":4529,"stille":4530,"arbeiders":4531,"valse</w>":4532,"tonig</w>":4533,"bonen":4534,"bonzen</w>":4535,"dies</w>":4536,"kneien</w>":4537,"juust</w>":4538,"tikte</w>":4539,"daarop</w>":4540,"daardoor</w>":4541,"wols</w>":4542,"isch</w>":4543,"hoastig</w>":4544,"roeten</w>":4545,"koopen</w>":4546,"gras":4547,"minsken</w>":4548,"weerstand</w>":4549,"rijden</w>":4550,"pest</w>":4551,"pekel</w>":4552,"noader</w>":4553,"stoft</w>":4554,"baai":4555,"duivel</w>":4556,"vreu":4557,"vremde</w>":4558,"feui":4559,"bruken</w>":4560,"beet</w>":4561,"eindje</w>":4562,"ighaid</w>":4563,"mars</w>":4564,"vief</w>":4565,"vieze</w>":4566,"grootsk</w>":4567,"mensen":4568,"slimmer</w>":4569,"woarhaid</w>":4570,"schut</w>":4571,"hiel</w>":4572,"mörns</w>":4573,"stoelen</w>":4574,"snoe":4575,"snui":4576,"tafel":4577,"zinnen</w>":4578,"vlakte</w>":4579,"kruik</w>":4580,"roak</w>":4581,"welnee</w>":4582,"gevonden</w>":4583,"vorige</w>":4584,"kerkbouk</w>":4585,"kerkboek</w>":4586,"haalf":4587,"knikt</w>":4588,"schoap":4589,"zoekt</w>":4590,"kouk</w>":4591,"verstopt</w>":4592,"rooie</w>":4593,"oogsten</w>":4594,"droge</w>":4595,"baanke</w>":4596,"baange</w>":4597,"panto":4598,"pannen":4599,"slot</w>":4600,"preces":4601,"groeit</w>":4602,"begunnen</w>":4603,"bare</w>":4604,"mains</w>":4605,"knap</w>":4606,"verschrikt</w>":4607,"kaante</w>":4608,"maôk</w>":4609,"smeten</w>":4610,"piep</w>":4611,"kwammen</w>":4612,"vloer</w>":4613,"oavend":4614,"broek":4615,"heurn</w>":4616,"waôre</w>":4617,"gruin":4618,"dient</w>":4619,"daôgen</w>":4620,"moeite</w>":4621,"jongeman</w>":4622,"kaalm</w>":4623,"stank</w>":4624,"bedstee</w>":4625,"gloeiend</w>":4626,"gloeiende</w>":4627,"muite</w>":4628,"naai":4629,"zwigt</w>":4630,"goat</w>":4631,"vlug</w>":4632,"fluistert</w>":4633,"talen</w>":4634,"schuim</w>":4635,"kroeskop</w>":4636,"publiek</w>":4637,"zeuven</w>":4638,"kantoor":4639,"es-ver":4640,"flauw</w>":4641,"part</w>":4642,"slijt":4643,"kiender</w>":4644,"penne</w>":4645,"sprekt</w>":4646,"fouten</w>":4647,"nuimen</w>":4648,"bedoel</w>":4649,"daad</w>":4650,"betekent</w>":4651,"geluiden</w>":4652,"eeuwigheid</w>":4653,"advo":4654,"glans</w>":4655,"sliet":4656,"áár</w>":4657,"buurvrouw</w>":4658,"akelig</w>":4659,"flustert</w>":4660,"rötter":4661,"wuir</w>":4662,"beledigd</w>":4663,"aôvends</w>":4664,"verantwoorden</w>":4665,"cinten</w>":4666,"weduwe</w>":4667,"stookhok</w>":4668,"gemeente</w>":4669,"scheuvelloo":4670,"harmonic":4671,"rapport</w>":4672,"rimpels</w>":4673,"september":4674,"proces-ver":4675,"grönneger</w>":4676,"soo'n</w>":4677,"toafel</w>":4678,"verbaasd</w>":4679,"diligence</w>":4680,"precesverba":4681,"**":4682,"-er</w>":4683,"-aan</w>":4684,".r</w>":4685,"00</w>":4686,"ag":4687,"ao":4688,"appel</w>":4689,"bo</w>":4690,"bom</w>":4691,"boor":4692,"boare</w>":4693,"can":4694,"cou":4695,"daan":4696,"dijn</w>":4697,"dend</w>":4698,"ddink</w>":4699,"et":4700,"ee</w>":4701,"ften</w>":4702,"fra":4703,"glu":4704,"hé":4705,"ha</w>":4706,"hur</w>":4707,"hor":4708,"i.</w>":4709,"itie</w>":4710,"jo</w>":4711,"jar":4712,"kl</w>":4713,"klu":4714,"king</w>":4715,"kil</w>":4716,"kkom</w>":4717,"kkes</w>":4718,"kdom</w>":4719,"kontinu</w>":4720,"ktober</w>":4721,"ld":4722,"lis</w>":4723,"lonen</w>":4724,"lorre</w>":4725,"mert</w>":4726,"muren</w>":4727,"miene</w>":4728,"n-":4729,"n'n</w>":4730,"nst</w>":4731,"nhoes</w>":4732,"oen":4733,"oddink</w>":4734,"oktober</w>":4735,"pop":4736,"pijn":4737,"pgat</w>":4738,"pijt</w>":4739,"plichten</w>":4740,"qu":4741,"rs</w>":4742,"ran":4743,"r'n</w>":4744,"roet</w>":4745,"roeg</w>":4746,"rôgge</w>":4747,"saa":4748,"ske":4749,"ses</w>":4750,"swie":4751,"sjes</w>":4752,"swoar</w>":4753,"s.r</w>":4754,"tj</w>":4755,"tij</w>":4756,"t'n</w>":4757,"tert</w>":4758,"tweg</w>":4759,"tja":4760,"ttel":4761,"uterd</w>":4762,"voren</w>":4763,"varen</w>":4764,"vlou":4765,"vleu":4766,"wra":4767,"wör":4768,"wri":4769,"wèl</w>":4770,"zal":4771,"zien":4772,"zwaart</w>":4773,"zwaôre</w>":4774,"énde</w>":4775,"íj":4776,"heeren</w>":4777,"hekel</w>":4778,"dai</w>":4779,"dage":4780,"daste</w>":4781,"oost":4782,"ooster":4783,"war</w>":4784,"wais</w>":4785,"wast</w>":4786,"wagen":4787,"oad</w>":4788,"oans</w>":4789,"stô":4790,"staa":4791,"st'ren</w>":4792,"gea":4793,"ges":4794,"gelen</w>":4795,"gekl":4796,"gewaar</w>":4797,"geplaa":4798,"gekeken</w>":4799,"gebroken</w>":4800,"gesloten</w>":4801,"gemerkt</w>":4802,"getallen</w>":4803,"ijnen</w>":4804,"onafhankelijk</w>":4805,"weke</w>":4806,"indu":4807,"intussen</w>":4808,"infor":4809,"leunt</w>":4810,"lelk</w>":4811,"out":4812,"mest":4813,"mede":4814,"meel":4815,"mele</w>":4816,"meul":4817,"meiden</w>":4818,"zele":4819,"zeun":4820,"bede":4821,"belan":4822,"nove":4823,"all</w>":4824,"alber":4825,"alern":4826,"verd</w>":4827,"verhe":4828,"verkle":4829,"vergoan</w>":4830,"verboden</w>":4831,"verdraaid</w>":4832,"res</w>":4833,"rein":4834,"rebe":4835,"deghaid</w>":4836,"deloos</w>":4837,"deftig</w>":4838,"ome</w>":4839,"nied</w>":4840,"tocht</w>":4841,"schik</w>":4842,"schoor":4843,"negen</w>":4844,"elen</w>":4845,"nau</w>":4846,"nauwe":4847,"doch":4848,"aars</w>":4849,"vegen</w>":4850,"zogen</w>":4851,"zoks":4852,"zagt</w>":4853,"zaier</w>":4854,"urs</w>":4855,"urrie</w>":4856,"wicht":4857,"wisten</w>":4858,"gren":4859,"grun":4860,"groet</w>":4861,"dergelijke</w>":4862,"aang</w>":4863,"aankijkt</w>":4864,"opstand</w>":4865,"opstan":4866,"opins</w>":4867,"run":4868,"rustige</w>":4869,"moes</w>":4870,"oorten</w>":4871,"koms</w>":4872,"komaan</w>":4873,"boze</w>":4874,"boenen</w>":4875,"botter":4876,"teer</w>":4877,"tege":4878,"tekeer</w>":4879,"tegelijk</w>":4880,"rau</w>":4881,"mal</w>":4882,"lippen</w>":4883,"zitter</w>":4884,"lieken</w>":4885,"liene</w>":4886,"liefst</w>":4887,"gaô":4888,"kem</w>":4889,"kei</w>":4890,"ketel":4891,"kepot</w>":4892,"spij":4893,"spon</w>":4894,"job</w>":4895,"droo":4896,"lukt</w>":4897,"luchten</w>":4898,"lustert</w>":4899,"lusterde</w>":4900,"mengt</w>":4901,"mennen</w>":4902,"mening</w>":4903,"jongelu":4904,"zul</w>":4905,"krol</w>":4906,"kroek</w>":4907,"trientje</w>":4908,"traauw":4909,"troep</w>":4910,"vaker</w>":4911,"wors</w>":4912,"worst</w>":4913,"allemoal</w>":4914,"klaa":4915,"kloare</w>":4916,"kluiten</w>":4917,"duit</w>":4918,"d'ogen</w>":4919,"d'akker</w>":4920,"kerd</w>":4921,"kerton</w>":4922,"eerde</w>":4923,"eerlijke</w>":4924,"steg</w>":4925,"steen":4926,"manlu</w>":4927,"merken</w>":4928,"achteren</w>":4929,"kam":4930,"kap":4931,"kat</w>":4932,"kap</w>":4933,"kamp":4934,"kaïns</w>":4935,"hebb'n</w>":4936,"terde</w>":4937,"terechte</w>":4938,"haars</w>":4939,"haarte</w>":4940,"haarten</w>":4941,"haarms</w>":4942,"sluiten</w>":4943,"wils</w>":4944,"leef":4945,"leet</w>":4946,"leefd</w>":4947,"vende</w>":4948,"gers":4949,"gerui":4950,"stapt</w>":4951,"stati":4952,"stainen</w>":4953,"wiezer</w>":4954,"scheurde</w>":4955,"kinnen</w>":4956,"overleden</w>":4957,"overtui":4958,"strop":4959,"stroom</w>":4960,"ffe</w>":4961,"bah</w>":4962,"bain</w>":4963,"zelf":4964,"hart":4965,"harder</w>":4966,"harren</w>":4967,"kleurig</w>":4968,"moois</w>":4969,"voort</w>":4970,"voorover</w>":4971,"slappe</w>":4972,"kanner</w>":4973,"kansel</w>":4974,"treksch":4975,"oarst</w>":4976,"loer</w>":4977,"logen</w>":4978,"vocht</w>":4979,"kels</w>":4980,"laans</w>":4981,"volcontinu</w>":4982,"wijde</w>":4983,"wijnen</w>":4984,"wijlen</w>":4985,"wijzer</w>":4986,"ppen":4987,"rieke</w>":4988,"jamm":4989,"vanmorgen</w>":4990,"afgunst</w>":4991,"laats</w>":4992,"onderbroek</w>":4993,"onderzoek</w>":4994,"tels</w>":4995,"meeste</w>":4996,"kies</w>":4997,"tanden</w>":4998,"veurzichtig</w>":4999,"tting</w>":5000,"ttig</w>":5001,"holle</w>":5002,"holpen</w>":5003,"holdt</w>":5004,"rou</w>":5005,"dreig":5006,"dreunt</w>":5007,"dreug</w>":5008,"ainige</w>":5009,"doul</w>":5010,"schatten</w>":5011,"schaiden</w>":5012,"snei</w>":5013,"zoater":5014,"grijpen</w>":5015,"lens</w>":5016,"lente</w>":5017,"lendaal</w>":5018,"wark</w>":5019,"kreunt</w>":5020,"veldwa":5021,"groene</w>":5022,"doad</w>":5023,"jes":5024,"helle":5025,"ziel</w>":5026,"gung":5027,"uitleggen</w>":5028,"gebeden</w>":5029,"arbeids":5030,"tong</w>":5031,"bont</w>":5032,"bonnen</w>":5033,"oetert</w>":5034,"oetleggen</w>":5035,"dieper</w>":5036,"prat</w>":5037,"prachtig</w>":5038,"knechten</w>":5039,"kneels</w>":5040,"ôllt</w>":5041,"tikken</w>":5042,"waas</w>":5043,"waaide</w>":5044,"briefje</w>":5045,"vrijge":5046,"vrijhaid</w>":5047,"achterdeel</w>":5048,"brogt</w>":5049,"hoat</w>":5050,"hoaten</w>":5051,"roemte</w>":5052,"drukke</w>":5053,"janne":5054,"janken</w>":5055,"jankt</w>":5056,"roup</w>":5057,"zoowat</w>":5058,"geluden</w>":5059,"grai":5060,"gracht</w>":5061,"vracht</w>":5062,"vertelden</w>":5063,"wenst</w>":5064,"wenste</w>":5065,"wensen</w>":5066,"dsloot</w>":5067,"slepen</w>":5068,"slept</w>":5069,"slechte</w>":5070,"voal</w>":5071,"voaren</w>":5072,"cat":5073,"fabrieken</w>":5074,"febrieken</w>":5075,"geleu":5076,"zonde</w>":5077,"zonne":5078,"zondags</w>":5079,"wonner</w>":5080,"buigt</w>":5081,"bloem</w>":5082,"delf":5083,"deltje</w>":5084,"bitter</w>":5085,"zundag":5086,"troffen</w>":5087,"goie</w>":5088,"korte</w>":5089,"ruimen</w>":5090,"draad</w>":5091,"herf":5092,"here</w>":5093,"koppen</w>":5094,"brak</w>":5095,"vieftien</w>":5096,"mensch</w>":5097,"mpel</w>":5098,"boos</w>":5099,"banken</w>":5100,"bankje</w>":5101,"melde</w>":5102,"waist</w>":5103,"doel</w>":5104,"doetje</w>":5105,"hijlendaal</w>":5106,"verschil":5107,"zorgd</w>":5108,"duustere</w>":5109,"tegenstand</w>":5110,"joacob</w>":5111,"zinkt</w>":5112,"zingend</w>":5113,"stelde</w>":5114,"vlam</w>":5115,"doarveur</w>":5116,"koezen</w>":5117,"koeheerd</w>":5118,"zens</w>":5119,"misschain</w>":5120,"umd</w>":5121,"stiekem</w>":5122,"durf</w>":5123,"ijnmaôl</w>":5124,"zeep</w>":5125,"schoun":5126,"langzoa":5127,"jeugd</w>":5128,"ofgunst</w>":5129,"kwaadheid</w>":5130,"roam</w>":5131,"ppelt</w>":5132,"muziek</w>":5133,"sikkom</w>":5134,"welkom</w>":5135,"tram</w>":5136,"trappen</w>":5137,"vorig</w>":5138,"smurrie</w>":5139,"haildal</w>":5140,"zaad</w>":5141,"zaacht</w>":5142,"snikken</w>":5143,"verdwijnen</w>":5144,"kouheerd</w>":5145,"mmerij</w>":5146,"luutje</w>":5147,"pikt</w>":5148,"baank</w>":5149,"pannen</w>":5150,"gouie</w>":5151,"groeien</w>":5152,"groeten</w>":5153,"hoeshol":5154,"gestommel</w>":5155,"knappe</w>":5156,"kruiwagen</w>":5157,"slaapt</w>":5158,"pols</w>":5159,"polders</w>":5160,"fietsen</w>":5161,"monnee</w>":5162,"trillen</w>":5163,"trillend</w>":5164,"kussen</w>":5165,"schrijft</w>":5166,"breien</w>":5167,"kalm</w>":5168,"regenbak</w>":5169,"gruin</w>":5170,"dienst</w>":5171,"tjo</w>":5172,"scheuvels</w>":5173,"scheuvelen</w>":5174,"zwijgt</w>":5175,"fleur</w>":5176,"glimmerij</w>":5177,"bedwon":5178,"bediende</w>":5179,"klok":5180,"praatte</w>":5181,"muid</w>":5182,"zwaarte</w>":5183,"spinster</w>":5184,"patiënten</w>":5185,"strekt</w>":5186,"strokartonfabriek</w>":5187,"gelegent":5188,"stoppel":5189,"werkvolk</w>":5190,"kroepen</w>":5191,"flikken</w>":5192,"begrijpen</w>":5193,"spiegel</w>":5194,"vrund</w>":5195,"partij</w>":5196,"scherp</w>":5197,"schelden</w>":5198,"binnenkort</w>":5199,"forse</w>":5200,"kaarnhoes</w>":5201,"kkert</w>":5202,"verdroagen</w>":5203,"naôst</w>":5204,"naôbers</w>":5205,"gordijn</w>":5206,"wachtte</w>":5207,"ddert</w>":5208,"klanken</w>":5209,"noemen</w>":5210,"noemt</w>":5211,"tinus</w>":5212,"baarg</w>":5213,"plus</w>":5214,"taai</w>":5215,"stuift</w>":5216,"westerwolde</w>":5217,"scheeps":5218,"scheidsloot</w>":5219,"smerige</w>":5220,"wring</w>":5221,"slaôpen</w>":5222,"boontjes</w>":5223,"selijk</w>":5224,"jobk-":5225,"landse</w>":5226,"fatsoen":5227,"scheur</w>":5228,"vergif</w>":5229,"vergist</w>":5230,"veegd</w>":5231,"aandern</w>":5232,"ekbert</w>":5233,"glee</w>":5234,"knijen</w>":5235,"molen":5236,"rolde</w>":5237,"grindweg</w>":5238,"grintweg</w>":5239,"terug":5240,"preekstoul</w>":5241,"heldere</w>":5242,"streupen</w>":5243,"portemonnee</w>":5244,"gevolg</w>":5245,"verrekken</w>":5246,"verdrijt</w>":5247,"torenklok</w>":5248,"oorlog</w>":5249,"triest</w>":5250,"manneke</w>":5251,"langzamerhand</w>":5252,"brandewijn</w>":5253,"kwikstaar":5254,"salon</w>":5255,"geheim</w>":5256,"verspeuld</w>":5257,"vrömde</w>":5258,"viooltje</w>":5259,"sjompgat</w>":5260,"sgierig</w>":5261,"gemainte</w>":5262,"vraôgen</w>":5263,"tweidonker</w>":5264,"secuur</w>":5265,"stoomfiets":5266,"kerkvoogden</w>":5267,"betaald</w>":5268,"hazzens</w>":5269,"spaigel</w>":5270,"tussen":5271,"bonentijd</w>":5272,"vreugde</w>":5273,"slijtbaar</w>":5274,"slietboar</w>":5275,"proces-verbaal</w>":5276,"precesverbaôl</w>":5277,"***</w>":5278,"agnes</w>":5279,"albert":5280,"nauwelijks</w>":5281,"trekschuit</w>":5282,"jammert</w>":5283,"dreigend</w>":5284,"veldwachter</w>":5285,"-me":5286,"-weg</w>":5287,"ap":5288,"ak</w>":5289,"ast</w>":5290,"agen":5291,"by</w>":5292,"bt</w>":5293,"bal":5294,"bbel</w>":5295,"bbe</w>":5296,"cie":5297,"cen":5298,"do</w>":5299,"dwe":5300,"dver":5301,"donder":5302,"e.</w>":5303,"echt":5304,"eten":5305,"f-":5306,"fl":5307,"fan":5308,"fers</w>":5309,"gie":5310,"gon":5311,"glen":5312,"gmeester</w>":5313,"gijn":5314,"glijden</w>":5315,"hö":5316,"hing</w>":5317,"idee</w>":5318,"jen</w>":5319,"jun":5320,"jacht":5321,"kô":5322,"kaa":5323,"k'n</w>":5324,"koor":5325,"kaal</w>":5326,"kli":5327,"kter</w>":5328,"keld</w>":5329,"kus</w>":5330,"kkere</w>":5331,"kkers</w>":5332,"kwaal</w>":5333,"lè":5334,"lse":5335,"mien":5336,"maat</w>":5337,"muit</w>":5338,"nú</w>":5339,"neren</w>":5340,"naald</w>":5341,"ob":5342,"off":5343,"paa":5344,"pan</w>":5345,"pun":5346,"psen</w>":5347,"preken</w>":5348,"pende</w>":5349,"port</w>":5350,"rin":5351,"rig</w>":5352,"raand</w>":5353,"rommel</w>":5354,"sk</w>":5355,"soa":5356,"sden</w>":5357,"sop":5358,"skes</w>":5359,"smar":5360,"tal</w>":5361,"tster</w>":5362,"uff":5363,"v'":5364,"vaal</w>":5365,"vien":5366,"vonnen</w>":5367,"vlö":5368,"vienden</w>":5369,"wá":5370,"wd</w>":5371,"wre":5372,"wond</w>":5373,"wreef</w>":5374,"wreed</w>":5375,"z'":5376,"zè":5377,"zé":5378,"zwonnen</w>":5379,"zwaai</w>":5380,"zwien</w>":5381,"íj</w>":5382,"er'n</w>":5383,"erden</w>":5384,"heen":5385,"dar":5386,"daga":5387,"dadelijk</w>":5388,"darde</w>":5389,"oogen":5390,"ieuwd</w>":5391,"waor</w>":5392,"oakel</w>":5393,"ston":5394,"steen</w>":5395,"stur":5396,"stientje</w>":5397,"stwind</w>":5398,"staank</w>":5399,"enis</w>":5400,"chie</w>":5401,"geha":5402,"geloo":5403,"gedien</w>":5404,"gekke</w>":5405,"geweten</w>":5406,"gewaôr</w>":5407,"geducht</w>":5408,"gegrepen</w>":5409,"geploe":5410,"gewassen</w>":5411,"geude</w>":5412,"geschreven</w>":5413,"gelieke</w>":5414,"ijz":5415,"ije</w>":5416,"ijren</w>":5417,"oeth":5418,"ans</w>":5419,"anker</w>":5420,"ankomen</w>":5421,"one</w>":5422,"weven</w>":5423,"wegens</w>":5424,"weiden</w>":5425,"weinig</w>":5426,"ing":5427,"indi":5428,"lel":5429,"lei</w>":5430,"lein</w>":5431,"letten</w>":5432,"leiden</w>":5433,"lelijke</w>":5434,"out</w>":5435,"mei":5436,"mei</w>":5437,"zeit</w>":5438,"zeiden</w>":5439,"zeerte</w>":5440,"beden</w>":5441,"beten</w>":5442,"bewoa":5443,"beje":5444,"belang</w>":5445,"bedocht</w>":5446,"bezied</w>":5447,"bewegen</w>":5448,"bescher":5449,"betreft</w>":5450,"beweegt</w>":5451,"betalen</w>":5452,"noe</w>":5453,"veran":5454,"verdo":5455,"verni":5456,"verkl":5457,"verander":5458,"verstaan</w>":5459,"verstoan</w>":5460,"verzet</w>":5461,"vernam</w>":5462,"verkon":5463,"verbroken</w>":5464,"verhaal</w>":5465,"verweren</w>":5466,"verkoopen</w>":5467,"verzwonnen</w>":5468,"rei":5469,"red</w>":5470,"reus</w>":5471,"reikt</w>":5472,"resoluut</w>":5473,"regelen</w>":5474,"haten</w>":5475,"de-":5476,"delijke</w>":5477,"demie":5478,"omme":5479,"omme</w>":5480,"toppen</w>":5481,"schö":5482,"schor":5483,"schopt</w>":5484,"schaam</w>":5485,"schonen</w>":5486,"schone</w>":5487,"nem":5488,"negen":5489,"netjes</w>":5490,"nevels</w>":5491,"elf</w>":5492,"elijke</w>":5493,"lait</w>":5494,"lage</w>":5495,"aardig</w>":5496,"aarns</w>":5497,"aarbaiden</w>":5498,"vei":5499,"veg</w>":5500,"vei</w>":5501,"vechten</w>":5502,"veuren</w>":5503,"veerd</w>":5504,"vegers</w>":5505,"uith":5506,"zover</w>":5507,"zolaank</w>":5508,"vro":5509,"vro</w>":5510,"vroa":5511,"zak":5512,"wir":5513,"wizze</w>":5514,"order</w>":5515,"graan</w>":5516,"dern</w>":5517,"aanders</w>":5518,"aankikt</w>":5519,"aandai":5520,"ople":5521,"opuit</w>":5522,"opzij</w>":5523,"opper":5524,"ruik</w>":5525,"chtige</w>":5526,"bode":5527,"teert</w>":5528,"temp":5529,"raô":5530,"mattje</w>":5531,"machtel":5532,"lichter</w>":5533,"dia":5534,"diz</w>":5535,"digt</w>":5536,"dieren</w>":5537,"digheden</w>":5538,"gaon</w>":5539,"kee":5540,"keert</w>":5541,"keurig</w>":5542,"kemedie</w>":5543,"nichtje</w>":5544,"spook</w>":5545,"spel</w>":5546,"spers":5547,"braan":5548,"unde</w>":5549,"droe":5550,"lijken</w>":5551,"mozzen</w>":5552,"lands</w>":5553,"langk</w>":5554,"luchtig</w>":5555,"lutje":5556,"beroe":5557,"handig</w>":5558,"handelen</w>":5559,"hum":5560,"huu":5561,"huf</w>":5562,"huus":5563,"huwelijk</w>":5564,"iendertied</w>":5565,"hoger</w>":5566,"mende</w>":5567,"menig</w>":5568,"menaier</w>":5569,"zus</w>":5570,"werpt</w>":5571,"kring</w>":5572,"kropt</w>":5573,"kringt</w>":5574,"krenten</w>":5575,"arbai":5576,"koers</w>":5577,"vaier</w>":5578,"vaders</w>":5579,"klon":5580,"kloagen</w>":5581,"dust</w>":5582,"d'aarbaiders</w>":5583,"kereltje</w>":5584,"eerlek</w>":5585,"eerappel":5586,"illiet</w>":5587,"loon":5588,"hoefde</w>":5589,"steuren</w>":5590,"stekend</w>":5591,"stewiend</w>":5592,"merd</w>":5593,"meroakel</w>":5594,"week":5595,"past</w>":5596,"windje</w>":5597,"terg</w>":5598,"sla</w>":5599,"dooie</w>":5600,"doods":5601,"gelok</w>":5602,"wilder":5603,"blaa":5604,"bloaden</w>":5605,"ventje</w>":5606,"geroepen</w>":5607,"stuver</w>":5608,"wies":5609,"wiek</w>":5610,"wieze</w>":5611,"wiegen</w>":5612,"wieden</w>":5613,"wieten</w>":5614,"wieke</w>":5615,"overlijden</w>":5616,"overlijdt</w>":5617,"stri":5618,"straal</w>":5619,"tueel</w>":5620,"tuug</w>":5621,"tusken</w>":5622,"tuatie</w>":5623,"ffer</w>":5624,"bauwt</w>":5625,"baôs</w>":5626,"zelden</w>":5627,"hartje</w>":5628,"klei</w>":5629,"kleer":5630,"voorstellen</w>":5631,"kanaal</w>":5632,"maai":5633,"maaiers</w>":5634,"los":5635,"lossen</w>":5636,"benul</w>":5637,"benieuwd</w>":5638,"voer</w>":5639,"kelij":5640,"volkontinu</w>":5641,"wijf</w>":5642,"wijl</w>":5643,"pper</w>":5644,"rits":5645,"eenzame</w>":5646,"riekelijk</w>":5647,"luidt</w>":5648,"luipt</w>":5649,"bint</w>":5650,"vangt</w>":5651,"vanuit</w>":5652,"vanmörgen</w>":5653,"afgesproken</w>":5654,"huif</w>":5655,"meeuwen</w>":5656,"boeten":5657,"kiepen</w>":5658,"oafschaid</w>":5659,"veurover</w>":5660,"veurbij</w>":5661,"veurjoar</w>":5662,"veurkoamer</w>":5663,"veurjoar":5664,"tten":5665,"buus</w>":5666,"buus":5667,"rot":5668,"woagen</w>":5669,"schat</w>":5670,"snei":5671,"zoak</w>":5672,"lena</w>":5673,"lenoa</w>":5674,"nijd</w>":5675,"warmte</w>":5676,"kredie":5677,"voest</w>":5678,"veling</w>":5679,"groter</w>":5680,"koat</w>":5681,"vinnen</w>":5682,"doame</w>":5683,"jeblieft</w>":5684,"ziede</w>":5685,"zieken":5686,"ierd</w>":5687,"vallig</w>":5688,"klap":5689,"klaô":5690,"midden":5691,"diepe</w>":5692,"pracht</w>":5693,"prakki":5694,"geerts</w>":5695,"tige</w>":5696,"blauw":5697,"waaid</w>":5698,"waaiende</w>":5699,"bijt</w>":5700,"blijdschap</w>":5701,"daarde</w>":5702,"wold</w>":5703,"achterom</w>":5704,"achterste</w>":5705,"achterèn</w>":5706,"roezie</w>":5707,"drukte</w>":5708,"see":5709,"seu":5710,"sem</w>":5711,"potten":5712,"vrauw</w>":5713,"links</w>":5714,"dsel</w>":5715,"juffrau</w>":5716,"sleten</w>":5717,"ontmoe":5718,"stokje</w>":5719,"fabri":5720,"failliet</w>":5721,"speelde</w>":5722,"femilie</w>":5723,"pere":5724,"peren":5725,"gelezen</w>":5726,"geleerd</w>":5727,"schikt</w>":5728,"wonden</w>":5729,"woning</w>":5730,"zunne</w>":5731,"zunner</w>":5732,"zundoags</w>":5733,"brut":5734,"dracht</w>":5735,"trots</w>":5736,"kort":5737,"ruim</w>":5738,"ruiten</w>":5739,"ruikt</w>":5740,"ruimte</w>":5741,"tast":5742,"herder</w>":5743,"beest</w>":5744,"kopp":5745,"kopje</w>":5746,"brai":5747,"braide</w>":5748,"braif</w>":5749,"straf</w>":5750,"dorsen</w>":5751,"woare</w>":5752,"woarschou":5753,"melk":5754,"meltje</w>":5755,"melke</w>":5756,"schud":5757,"wegkomt</w>":5758,"weggaan</w>":5759,"bruiloft</w>":5760,"snö":5761,"snuff":5762,"tafeltje</w>":5763,"drieven</w>":5764,"vaôk</w>":5765,"vaôrt</w>":5766,"tegenslag</w>":5767,"vlas</w>":5768,"koekoek</w>":5769,"toal</w>":5770,"zend":5771,"bieten</w>":5772,"zeest</w>":5773,"zeevolk</w>":5774,"schoul</w>":5775,"languit</w>":5776,"kskes</w>":5777,"louter</w>":5778,"roaden</w>":5779,"via</w>":5780,"vieren</w>":5781,"leunen</w>":5782,"brandde</w>":5783,"situatie</w>":5784,"trak":5785,"haôlen</w>":5786,"drinkt</w>":5787,"schaap</w>":5788,"schaamde</w>":5789,"plezaier</w>":5790,"ronde</w>":5791,"rondje</w>":5792,"vort</w>":5793,"gebogen</w>":5794,"vroegere</w>":5795,"aigelk</w>":5796,"haald</w>":5797,"haalde</w>":5798,"dags":5799,"peerden</w>":5800,"zaaier</w>":5801,"knipt</w>":5802,"snikke</w>":5803,"verdiende</w>":5804,"lachje</w>":5805,"gisteren</w>":5806,"luuster</w>":5807,"luustern</w>":5808,"naarns</w>":5809,"oogst":5810,"college</w>":5811,"dijnen</w>":5812,"allinneg</w>":5813,"schooiers</w>":5814,"stroal</w>":5815,"dinken</w>":5816,"groei</w>":5817,"boerenknecht</w>":5818,"boerendochter</w>":5819,"barst</w>":5820,"ttertied</w>":5821,"maint</w>":5822,"mainde</w>":5823,"mainst</w>":5824,"blinden</w>":5825,"hinder":5826,"politie</w>":5827,"schreeuw</w>":5828,"schreeuwen</w>":5829,"drijft</w>":5830,"fielse":5831,"tjestied</w>":5832,"aardappels</w>":5833,"presen":5834,"gruien</w>":5835,"sienen</w>":5836,"maark</w>":5837,"stommelt</w>":5838,"gemeen</w>":5839,"glipt</w>":5840,"guster</w>":5841,"maank</w>":5842,"maanden</w>":5843,"naaien</w>":5844,"poos</w>":5845,"poosje</w>":5846,"poesten</w>":5847,"deugt</w>":5848,"deugd</w>":5849,"sprake</w>":5850,"börgmeester</w>":5851,"onnerwaal</w>":5852,"kofje</w>":5853,"prootte</w>":5854,"schuift</w>":5855,"werkgelegenheid</w>":5856,"paarden</w>":5857,"schrokken</w>":5858,"spiet</w>":5859,"eventueel</w>":5860,"schoede":5861,"pekela</w>":5862,"schoenmaker":5863,"plank</w>":5864,"snijdt</w>":5865,"bedrogen</w>":5866,"bedrijf</w>":5867,"stinkt</w>":5868,"stinkende</w>":5869,"rechtveerdig</w>":5870,"sund</w>":5871,"sunner</w>":5872,"zwakke</w>":5873,"bedoelt</w>":5874,"tevree</w>":5875,"beroerd</w>":5876,"mooist</w>":5877,"beteuterd</w>":5878,"glaasje</w>":5879,"scheef</w>":5880,"smerig</w>":5881,"nieuws</w>":5882,"schande</w>":5883,"schandaal</w>":5884,"eeuwige</w>":5885,"boontjestied</w>":5886,"ochtends</w>":5887,"schient</w>":5888,"buurman</w>":5889,"fatsoun</w>":5890,"akelige</w>":5891,"beledigen</w>":5892,"aandere</w>":5893,"dubbele</w>":5894,"dubbeltjes</w>":5895,"middelste</w>":5896,"foi</w>":5897,"nederlandse</w>":5898,"waarkgelegent":5899,"steunen</w>":5900,"möllen</w>":5901,"uurtje</w>":5902,"knooien</w>":5903,"portefeui":5904,"bemoei</w>":5905,"betere</w>":5906,"verliefd</w>":5907,"schaarp</w>":5908,"keertje</w>":5909,"duvelsch</w>":5910,"kertonfebriek</w>":5911,"hoofd":5912,"schenk</w>":5913,"vogelzaad</w>":5914,"sleutel</w>":5915,"kwartier</w>":5916,"gaais</w>":5917,"kkoa</w>":5918,"gebruik</w>":5919,"meteen</w>":5920,"allèn</w>":5921,"regelde</w>":5922,"veujoar</w>":5923,"uiteraard</w>":5924,"zaterdag</w>":5925,"spanning</w>":5926,"vensterbank</w>":5927,"jammerde</w>":5928,"iersvolk</w>":5929,"collega</w>":5930,"acce":5931,"wrijft</w>":5932,"zoons</w>":5933,"endken</w>":5934,"verzachten</w>":5935,"totdat</w>":5936,"zaôken</w>":5937,"motor</w>":5938,"slechts</w>":5939,"flikflooien</w>":5940,"extra</w>":5941,"augustus</w>":5942,"nummer</w>":5943,"enorme</w>":5944,"chines</w>":5945,"veuls</w>":5946,"makkelk</w>":5947,"krimpt</w>":5948,"krigst</w>":5949,"klompen</w>":5950,"kachel</w>":5951,"kaptein</w>":5952,"grasland</w>":5953,"baaident</w>":5954,"schoapjong</w>":5955,"pannenkoek</w>":5956,"gruinlaand</w>":5957,"pijnlijk</w>":5958,"vlouer</w>":5959,"wrift</w>":5960,"dagelijks</w>":5961,"november</w>":5962,"alernoarst</w>":5963,"rebekkoa</w>":5964,"leeftijd</w>":5965,"geruimd</w>":5966,"overtuigd</w>":5967,"gungkt</w>":5968,"arbeidsbureau</w>":5969,"schounmoa":5970,"juni</w>":5971,"sturven</w>":5972,"negentien</w>":5973,"aandailen</w>":5974,"krediet</w>":5975,"prakkis":5976,"waarkgelegenthaid</w>":5977,"portefeuille</w>":5978,"'om</w>":5979,"'zeg</w>":5980,"-e</w>":5981,"19":5982,"ah</w>":5983,"aste</w>":5984,"abon":5985,"apot":5986,"bit</w>":5987,"bom":5988,"bber":5989,"bloo":5990,"baal":5991,"baard</w>":5992,"baantje</w>":5993,"breek</w>":5994,"breek":5995,"breed</w>":5996,"board</w>":5997,"bolt</w>":5998,"bleke</w>":5999,"ck":6000,"cij":6001,"car":6002,"dis</w>":6003,"dwin":6004,"dwen":6005,"ele":6006,"eel":6007,"eva</w>":6008,"fder</w>":6009,"fden</w>":6010,"fop":6011,"flo":6012,"feer</w>":6013,"fse</w>":6014,"fijne</w>":6015,"fluisteren</w>":6016,"foetert</w>":6017,"gin":6018,"ggel</w>":6019,"gaard</w>":6020,"gg'n</w>":6021,"hó":6022,"haan</w>":6023,"hop":6024,"hun":6025,"halle":6026,"hure</w>":6027,"haauwen</w>":6028,"iken</w>":6029,"ika":6030,"iger</w>":6031,"izer</w>":6032,"jè</w>":6033,"jaa":6034,"jal":6035,"joeg</w>":6036,"joagen</w>":6037,"k'":6038,"kwe":6039,"kik</w>":6040,"koor</w>":6041,"kster</w>":6042,"kwin":6043,"kim":6044,"klai":6045,"kopt</w>":6046,"kust</w>":6047,"knu":6048,"kolen</w>":6049,"laar":6050,"loor</w>":6051,"lof</w>":6052,"lol</w>":6053,"ldig</w>":6054,"llen":6055,"ma</w>":6056,"ming</w>":6057,"mul":6058,"mheid</w>":6059,"mus</w>":6060,"mies</w>":6061,"mpot</w>":6062,"môg</w>":6063,"ns":6064,"nò":6065,"nent</w>":6066,"nood":6067,"och":6068,"ogra":6069,"pé</w>":6070,"pst</w>":6071,"pend</w>":6072,"ploo":6073,"pree":6074,"puu":6075,"pent</w>":6076,"pkes</w>":6077,"pum":6078,"pko</w>":6079,"plou":6080,"poort</w>":6081,"pzinnig</w>":6082,"pleet</w>":6083,"rit</w>":6084,"rop":6085,"ril</w>":6086,"rang</w>":6087,"rre</w>":6088,"rommelt</w>":6089,"swa":6090,"san":6091,"smoe":6092,"smit</w>":6093,"sje":6094,"slang</w>":6095,"suu":6096,"sust</w>":6097,"sliek</w>":6098,"sliep</w>":6099,"swaart</w>":6100,"singt</w>":6101,"sdoags</w>":6102,"sschen</w>":6103,"sdeuren</w>":6104,"soorten</w>":6105,"sfeer</w>":6106,"tis</w>":6107,"taar":6108,"tme</w>":6109,"tör":6110,"tientje</w>":6111,"tgeraakt</w>":6112,"taante</w>":6113,"tstaal</w>":6114,"uze</w>":6115,"uden</w>":6116,"uwer":6117,"ugel</w>":6118,"vl":6119,"vis</w>":6120,"vien</w>":6121,"vals</w>":6122,"vul":6123,"vvel</w>":6124,"vleden</w>":6125,"vonken</w>":6126,"vongen</w>":6127,"vurig</w>":6128,"wé":6129,"wde</w>":6130,"wou":6131,"wienden</w>":6132,"zá":6133,"zond</w>":6134,"zwee":6135,"zaait</w>":6136,"zwoa":6137,"zander":6138,"zwaaien</w>":6139,"zwijn</w>":6140,"àin</w>":6141,"âr":6142,"ér</w>":6143,"ôp</w>":6144,"ôkte</w>":6145,"ôlt</w>":6146,"——":6147,"erf":6148,"erin</w>":6149,"erder</w>":6150,"erbie</w>":6151,"erts</w>":6152,"heste</w>":6153,"heeg</w>":6154,"dat":6155,"dail</w>":6156,"oods</w>":6157,"oosten</w>":6158,"oostenwind</w>":6159,"iep":6160,"ies":6161,"ief</w>":6162,"iezer</w>":6163,"wal":6164,"wagens</w>":6165,"wazze</w>":6166,"wadden":6167,"oav":6168,"oaten</w>":6169,"stö":6170,"stjes</w>":6171,"stigen</w>":6172,"streken</w>":6173,"stort</w>":6174,"stolen</w>":6175,"stwinnen</w>":6176,"stallen</w>":6177,"enken</w>":6178,"engel":6179,"enth":6180,"enrij":6181,"chto":6182,"chloor</w>":6183,"geë":6184,"gewas</w>":6185,"gete":6186,"gemen":6187,"gedu":6188,"gezel":6189,"gekle":6190,"gevan":6191,"gedoa":6192,"gekker</w>":6193,"geheel</w>":6194,"gewicht</w>":6195,"gestaan</w>":6196,"gekend</w>":6197,"gepakt</w>":6198,"gevels</w>":6199,"geklopt</w>":6200,"gekleed</w>":6201,"gescheiden</w>":6202,"gelieks</w>":6203,"gewerkt</w>":6204,"gestuurd</w>":6205,"geschikte</w>":6206,"gesmeten</w>":6207,"geholpen</w>":6208,"geschrokken</w>":6209,"ijen</w>":6210,"ijgen</w>":6211,"oefd</w>":6212,"anno</w>":6213,"onaan":6214,"onzin</w>":6215,"onzicht":6216,"ongelukkig</w>":6217,"onschul":6218,"onbreek":6219,"wei</w>":6220,"weit</w>":6221,"wede":6222,"wetten</w>":6223,"wekker</w>":6224,"welig</w>":6225,"weene":6226,"ineen</w>":6227,"inkt</w>":6228,"intje</w>":6229,"ingang</w>":6230,"inzicht</w>":6231,"inses</w>":6232,"lees</w>":6233,"lezer</w>":6234,"ouk</w>":6235,"ousi":6236,"oudste</w>":6237,"meel</w>":6238,"metje</w>":6239,"meent</w>":6240,"mezelf</w>":6241,"mels</w>":6242,"mekamp</w>":6243,"mesienen</w>":6244,"zetje</w>":6245,"zeil":6246,"zegst</w>":6247,"zekere</w>":6248,"bek</w>":6249,"beder":6250,"bezu":6251,"behoe":6252,"belo":6253,"beuren</w>":6254,"begeert</w>":6255,"bessen</w>":6256,"bedoa":6257,"beent</w>":6258,"begele":6259,"beduu":6260,"bedoar":6261,"bevalt</w>":6262,"bekende</w>":6263,"beton</w>":6264,"bezorgen</w>":6265,"bestuur</w>":6266,"bewu":6267,"behandel</w>":6268,"beschaar":6269,"bewoog</w>":6270,"beurs</w>":6271,"noch</w>":6272,"noli":6273,"notar":6274,"alder":6275,"allicht</w>":6276,"almoal</w>":6277,"alva</w>":6278,"verg":6279,"verr":6280,"verweer</w>":6281,"verhu":6282,"vertr":6283,"versche":6284,"versla":6285,"vervol":6286,"vergaat</w>":6287,"verweet</w>":6288,"verlopen</w>":6289,"verbie":6290,"verlang":6291,"verloaten</w>":6292,"vergeef</w>":6293,"verkoop</w>":6294,"versloagen</w>":6295,"verwijt</w>":6296,"verboa":6297,"verdreven</w>":6298,"veracht</w>":6299,"rein</w>":6300,"reden</w>":6301,"rega":6302,"reken":6303,"regeert</w>":6304,"relt</w>":6305,"redelijk</w>":6306,"regende</w>":6307,"rebul":6308,"hak</w>":6309,"haven":6310,"deten</w>":6311,"deun":6312,"destij":6313,"deloze</w>":6314,"degene</w>":6315,"omgaan</w>":6316,"omheen</w>":6317,"omslag</w>":6318,"omgev":6319,"ompel":6320,"tob</w>":6321,"toen":6322,"tobbe</w>":6323,"schuren</w>":6324,"schier":6325,"schold</w>":6326,"schall</w>":6327,"schôllt</w>":6328,"schôp</w>":6329,"nei":6330,"nement</w>":6331,"nader</w>":6332,"namen</w>":6333,"nare</w>":6334,"nagels</w>":6335,"lain</w>":6336,"lamp</w>":6337,"dog</w>":6338,"doken</w>":6339,"doden":6340,"dove</w>":6341,"doppen</w>":6342,"doffe</w>":6343,"aarfgen":6344,"vette</w>":6345,"uiken</w>":6346,"zoer</w>":6347,"zoen":6348,"zopen</w>":6349,"zols</w>":6350,"zollen</w>":6351,"vrie":6352,"vring</w>":6353,"zao":6354,"zailen</w>":6355,"urgesteld</w>":6356,"wig":6357,"widde</w>":6358,"wiss":6359,"wikkel":6360,"ore</w>":6361,"orven</w>":6362,"orgel</w>":6363,"graô":6364,"aankeek</w>":6365,"aandacht</w>":6366,"aanzetten</w>":6367,"aannander</w>":6368,"opzitten</w>":6369,"opent</w>":6370,"opdrinken</w>":6371,"opnomen</w>":6372,"opgenomen</w>":6373,"opstoken</w>":6374,"oponth":6375,"opoe</w>":6376,"opvoeden</w>":6377,"opgeruimd</w>":6378,"ruden</w>":6379,"rukken</w>":6380,"rusteg</w>":6381,"moekes</w>":6382,"olds</w>":6383,"oldam":6384,"chting</w>":6385,"oorsprong</w>":6386,"kommerd</w>":6387,"bol</w>":6388,"tes</w>":6389,"teit</w>":6390,"teken</w>":6391,"teeren</w>":6392,"tekst</w>":6393,"raken</w>":6394,"ramen</w>":6395,"mai":6396,"maol</w>":6397,"makkelijk</w>":6398,"magere</w>":6399,"matjo</w>":6400,"machines</w>":6401,"lig":6402,"lid</w>":6403,"lip</w>":6404,"lize</w>":6405,"likt</w>":6406,"lidt</w>":6407,"dik":6408,"dichten</w>":6409,"digd</w>":6410,"digde</w>":6411,"liept</w>":6412,"gar":6413,"gain":6414,"gast</w>":6415,"gave</w>":6416,"gare</w>":6417,"gaist</w>":6418,"ked</w>":6419,"keur</w>":6420,"keuren</w>":6421,"keus</w>":6422,"nimmer</w>":6423,"spoo":6424,"span</w>":6425,"spin</w>":6426,"spar":6427,"sproe":6428,"spunt</w>":6429,"spreek</w>":6430,"joer</w>":6431,"jokko":6432,"drik</w>":6433,"druig</w>":6434,"droad</w>":6435,"lijd":6436,"lijk":6437,"lijster":6438,"mode</w>":6439,"moder":6440,"lank</w>":6441,"langt</w>":6442,"lands":6443,"luw":6444,"luster</w>":6445,"lukte</w>":6446,"lustte</w>":6447,"lutte":6448,"handige</w>":6449,"genen</w>":6450,"genaa":6451,"genoa":6452,"menten</w>":6453,"mennig</w>":6454,"menmaanj</w>":6455,"jonk":6456,"jonkje</w>":6457,"zuur</w>":6458,"zuchten</w>":6459,"zugst</w>":6460,"zuchtje</w>":6461,"zusters</w>":6462,"werkte</w>":6463,"krin":6464,"kraante</w>":6465,"kreng</w>":6466,"krenken</w>":6467,"vrouwen":6468,"arri":6469,"kosten</w>":6470,"komedie</w>":6471,"kostwinnen</w>":6472,"vaok</w>":6473,"kloe":6474,"klom</w>":6475,"klaar":6476,"duo</w>":6477,"duvels</w>":6478,"kert</w>":6479,"kerij</w>":6480,"kertje</w>":6481,"kering</w>":6482,"trut</w>":6483,"truus</w>":6484,"eeren</w>":6485,"eerkes</w>":6486,"eerta":6487,"ille</w>":6488,"lood":6489,"loop":6490,"waardoor</w>":6491,"hoeken</w>":6492,"aalde</w>":6493,"aaltje</w>":6494,"steven</w>":6495,"steun</w>":6496,"stevels</w>":6497,"stemmen</w>":6498,"mank</w>":6499,"kara":6500,"kater</w>":6501,"kabaal</w>":6502,"kennis</w>":6503,"pak":6504,"paôr</w>":6505,"pauze</w>":6506,"windt</w>":6507,"hoopte</w>":6508,"denis</w>":6509,"reeuw</w>":6510,"terecht":6511,"terwijl</w>":6512,"proot</w>":6513,"pronkt</w>":6514,"prinses</w>":6515,"haarst":6516,"mittertied</w>":6517,"slin":6518,"slome</w>":6519,"dooi</w>":6520,"doode</w>":6521,"gelslag</w>":6522,"sterf</w>":6523,"sterg</w>":6524,"wille":6525,"wilgen":6526,"wiltien</w>":6527,"ult</w>":6528,"blaauw</w>":6529,"leeg":6530,"leege</w>":6531,"leegte</w>":6532,"venij":6533,"venne":6534,"staken</w>":6535,"stamde</w>":6536,"wiezen</w>":6537,"scheel</w>":6538,"scheurt</w>":6539,"kinj</w>":6540,"kingen</w>":6541,"kinds":6542,"overleg</w>":6543,"stren":6544,"strie</w>":6545,"stropen</w>":6546,"streng</w>":6547,"struiken</w>":6548,"tuu":6549,"tum</w>":6550,"tugen</w>":6551,"tusschen</w>":6552,"moager</w>":6553,"bad</w>":6554,"bakt</w>":6555,"bakken</w>":6556,"bakje</w>":6557,"bakkes</w>":6558,"zelst</w>":6559,"haring</w>":6560,"klei":6561,"klets":6562,"kleding</w>":6563,"örgel</w>":6564,"voort":6565,"vooraf</w>":6566,"voorzitter</w>":6567,"slaper":6568,"maait</w>":6569,"maaiden</w>":6570,"loert</w>":6571,"begun</w>":6572,"laank":6573,"volgen</w>":6574,"ppe":6575,"pplaats</w>":6576,"ritme</w>":6577,"bouw</w>":6578,"eene</w>":6579,"eentonig</w>":6580,"rieg</w>":6581,"rieten</w>":6582,"riege</w>":6583,"jagen</w>":6584,"jagd</w>":6585,"jammer</w>":6586,"jacob</w>":6587,"binn'n</w>":6588,"afstand</w>":6589,"afgelopen</w>":6590,"onderwal</w>":6591,"ondergeschikte</w>":6592,"domme</w>":6593,"domkop</w>":6594,"telen</w>":6595,"telijk</w>":6596,"huiven</w>":6597,"huifst</w>":6598,"huilend</w>":6599,"meegebracht</w>":6600,"zult</w>":6601,"boegt</w>":6602,"boekje</w>":6603,"kiekt</w>":6604,"kiezen</w>":6605,"kievi":6606,"veurigen</w>":6607,"veuroaf</w>":6608,"veurzicht":6609,"houten</w>":6610,"uwer</w>":6611,"uwde</w>":6612,"holp</w>":6613,"holten</w>":6614,"holland":6615,"buk":6616,"rokken</w>":6617,"rogge":6618,"dreit</w>":6619,"dreien</w>":6620,"doormidden</w>":6621,"woagens</w>":6622,"ainzoa":6623,"dout</w>":6624,"kunsten":6625,"schatje</w>":6626,"schaft</w>":6627,"schamen</w>":6628,"schater":6629,"boerderij":6630,"tenen</w>":6631,"zoalig</w>":6632,"tser</w>":6633,"tseling</w>":6634,"warren</w>":6635,"kreu":6636,"kregel</w>":6637,"veldeur</w>":6638,"koal</w>":6639,"koater</w>":6640,"doagel":6641,"doags":6642,"hemm'n</w>":6643,"tweide</w>":6644,"gund</w>":6645,"uitgelopen</w>":6646,"stillen</w>":6647,"stilstand</w>":6648,"gebeten</w>":6649,"kippen</w>":6650,"kick":6651,"éél</w>":6652,"vale</w>":6653,"klap</w>":6654,"klacht</w>":6655,"klaid</w>":6656,"klapt</w>":6657,"klauw</w>":6658,"klachten</w>":6659,"klamp</w>":6660,"klaine</w>":6661,"tonen</w>":6662,"oetgoan</w>":6663,"oetkommen</w>":6664,"ôld</w>":6665,"juni":6666,"blad":6667,"blaô":6668,"brieks":6669,"bijzonder</w>":6670,"daarvan</w>":6671,"daarmee</w>":6672,"wolf</w>":6673,"achterop</w>":6674,"achteraan</w>":6675,"achteroet</w>":6676,"achterdeur</w>":6677,"achtergrond</w>":6678,"achterdeure</w>":6679,"hoaren</w>":6680,"roem</w>":6681,"druppen</w>":6682,"kraste</w>":6683,"krabbelt</w>":6684,"bliedschop</w>":6685,"gratis</w>":6686,"postuur</w>":6687,"pokkel</w>":6688,"vrachten</w>":6689,"vertelt</w>":6690,"minne":6691,"wennen</w>":6692,"wendt</w>":6693,"weerloze</w>":6694,"weerwolf</w>":6695,"rijt</w>":6696,"rijpen</w>":6697,"juffers</w>":6698,"juffrou</w>":6699,"noakend</w>":6700,"ontglipt</w>":6701,"half":6702,"voaker</w>":6703,"duivels</w>":6704,"dominees</w>":6705,"cade":6706,"spec":6707,"speeld</w>":6708,"vreselijk</w>":6709,"fester</w>":6710,"perij</w>":6711,"perbaa":6712,"geleid</w>":6713,"schikken</w>":6714,"ners</w>":6715,"buigen</w>":6716,"buiten":6717,"bloeien</w>":6718,"bitter":6719,"zunde</w>":6720,"schot</w>":6721,"bruin</w>":6722,"dragt</w>":6723,"gods":6724,"godge":6725,"korfje</w>":6726,"ruilen</w>":6727,"ruige</w>":6728,"tak</w>":6729,"takken</w>":6730,"draai</w>":6731,"herin":6732,"hersteld</w>":6733,"hersens</w>":6734,"kopte</w>":6735,"kopke</w>":6736,"kopjes</w>":6737,"stram</w>":6738,"straten</w>":6739,"dora</w>":6740,"groode</w>":6741,"slim":6742,"slip":6743,"borku":6744,"mpie</w>":6745,"mpjes</w>":6746,"boomekamp</w>":6747,"bank":6748,"banden</w>":6749,"schuin</w>":6750,"hiel":6751,"mörgen":6752,"bruist</w>":6753,"snuu":6754,"verschil</w>":6755,"verschijn":6756,"zorgt</w>":6757,"morgens</w>":6758,"driest</w>":6759,"duustern</w>":6760,"blik":6761,"blifst</w>":6762,"blikkert</w>":6763,"geest</w>":6764,"tegenin</w>":6765,"manscollege</w>":6766,"zinni":6767,"stelen</w>":6768,"steloze</w>":6769,"stelmao":6770,"vlammen</w>":6771,"staarven</w>":6772,"toalen</w>":6773,"toares</w>":6774,"stiekel</w>":6775,"dure</w>":6776,"toegang</w>":6777,"ijnde</w>":6778,"zeet</w>":6779,"zeemanscollege</w>":6780,"ellendig</w>":6781,"ellendige</w>":6782,"kwoal</w>":6783,"ofschoon</w>":6784,"ploagen</w>":6785,"kruis</w>":6786,"kruus</w>":6787,"kruud</w>":6788,"vitri":6789,"zwartin":6790,"brannen</w>":6791,"branwien</w>":6792,"brandge":6793,"muis</w>":6794,"siert</w>":6795,"woonkamer</w>":6796,"gespan":6797,"wellicht</w>":6798,"raakten</w>":6799,"baist</w>":6800,"sam</w>":6801,"sap</w>":6802,"sacht</w>":6803,"samen":6804,"sampie</w>":6805,"amster":6806,"plechtig</w>":6807,"dair</w>":6808,"gevlogen</w>":6809,"brongers":6810,"rens":6811,"renten":6812,"rongen</w>":6813,"stookt</w>":6814,"stoove</w>":6815,"numt</w>":6816,"smoren</w>":6817,"smijt</w>":6818,"verget</w>":6819,"laôter</w>":6820,"kerkpad</w>":6821,"touw</w>":6822,"kkie</w>":6823,"kk'n</w>":6824,"kking</w>":6825,"peerde":6826,"zaachte</w>":6827,"snidt</w>":6828,"schoamen</w>":6829,"doomnee</w>":6830,"gipsen</w>":6831,"gladde</w>":6832,"zoeker</w>":6833,"lichtte</w>":6834,"lichtend</w>":6835,"sloap":6836,"kouke</w>":6837,"versteld</w>":6838,"opgewonden</w>":6839,"naargens</w>":6840,"naarbuiten</w>":6841,"school":6842,"stroade</w>":6843,"stroaten</w>":6844,"stroatje</w>":6845,"jeuzelt</w>":6846,"dinsdag</w>":6847,"goud":6848,"goul</w>":6849,"groeide</w>":6850,"psweg</w>":6851,"zuivere</w>":6852,"gebrek</w>":6853,"hoeskes</w>":6854,"barg</w>":6855,"heugen</w>":6856,"heugt</w>":6857,"oombom</w>":6858,"gestorven</w>":6859,"blinken</w>":6860,"stuurlu</w>":6861,"stuurlui</w>":6862,"ambtenoar</w>":6863,"hingoan</w>":6864,"hinnerk</w>":6865,"knal</w>":6866,"plagen</w>":6867,"plakt</w>":6868,"onbekommerd</w>":6869,"kruid</w>":6870,"kruipen</w>":6871,"slaapje</w>":6872,"vlieg</w>":6873,"vliegende</w>":6874,"hennerk</w>":6875,"schreeve</w>":6876,"schreeuwt</w>":6877,"vakbonden</w>":6878,"jicht</w>":6879,"jips":6880,"mondje</w>":6881,"snorre":6882,"kontroledokters</w>":6883,"piepe</w>":6884,"snapt</w>":6885,"snauwt</w>":6886,"smokt</w>":6887,"smokken</w>":6888,"smokkel":6889,"allerbeste</w>":6890,"trilden</w>":6891,"kusten</w>":6892,"vlokken</w>":6893,"onverwacht</w>":6894,"onverwacht":6895,"onverslijtbaar</w>":6896,"onverslietboar</w>":6897,"brei":6898,"brekt</w>":6899,"kalk</w>":6900,"prevel":6901,"presi":6902,"t-e</w>":6903,"t-vrijer</w>":6904,"waôgen</w>":6905,"waôter</w>":6906,"gruine</w>":6907,"spelers</w>":6908,"körfke</w>":6909,"siemenmaanj</w>":6910,"daôge</w>":6911,"gezan":6912,"gezang</w>":6913,"meubels</w>":6914,"veertien</w>":6915,"jongetje</w>":6916,"scheut</w>":6917,"maarkte</w>":6918,"levendig</w>":6919,"standigheden</w>":6920,"kraab</w>":6921,"klokje</w>":6922,"praatje</w>":6923,"kooplu</w>":6924,"gut</w>":6925,"muide</w>":6926,"naakt</w>":6927,"poest</w>":6928,"poetje</w>":6929,"zwier</w>":6930,"zwiert</w>":6931,"spraken</w>":6932,"sjort</w>":6933,"vlugge</w>":6934,"zijde</w>":6935,"onnerschaid</w>":6936,"deksels</w>":6937,"kofvie":6938,"strokertonfebriek</w>":6939,"fluitje</w>":6940,"liefzeerte</w>":6941,"kroezen</w>":6942,"schemerig</w>":6943,"rechtvaardigheid</w>":6944,"paart</w>":6945,"heere":6946,"veenbranden</w>":6947,"veendammer</w>":6948,"dichtbij</w>":6949,"dichterbie</w>":6950,"putstaal</w>":6951,"zeuven":6952,"schoel</w>":6953,"schoeven</w>":6954,"schrift</w>":6955,"drankje</w>":6956,"mitnomen</w>":6957,"flapt</w>":6958,"planken</w>":6959,"smak</w>":6960,"belooft</w>":6961,"beloofde</w>":6962,"verwonder":6963,"verwrongen</w>":6964,"spoul":6965,"spouk</w>":6966,"winterdag</w>":6967,"stroomt</w>":6968,"stroomde</w>":6969,"binnenste</w>":6970,"kiender":6971,"sinds</w>":6972,"spot</w>":6973,"trientken</w>":6974,"strijd</w>":6975,"rechtveerdighaid</w>":6976,"appelhof</w>":6977,"gordijnen</w>":6978,"kilte</w>":6979,"kille</w>":6980,"kilogra":6981,"mijmeren</w>":6982,"toonen</w>":6983,"stiger</w>":6984,"beeldje</w>":6985,"bedoelingen</w>":6986,"daagse</w>":6987,"gsels</w>":6988,"kwispel":6989,"klant</w>":6990,"klank</w>":6991,"mmo</w>":6992,"noem</w>":6993,"ledikant</w>":6994,"begrip</w>":6995,"zomerregen</w>":6996,"baargen</w>":6997,"controledokters</w>":6998,"knoppen</w>":6999,"piere":7000,"soezen</w>":7001,"taaie</w>":7002,"gedaante</w>":7003,"gedwee</w>":7004,"schiet</w>":7005,"teleurgesteld</w>":7006,"wran":7007,"waskel":7008,"scharre":7009,"slaôpke</w>":7010,"glène</w>":7011,"glanzen</w>":7012,"serpent</w>":7013,"gewoond</w>":7014,"gewoonlijk</w>":7015,"middagslaapje</w>":7016,"middagslaôpke</w>":7017,"huishoud":7018,"pomp</w>":7019,"pompt</w>":7020,"pompplaats</w>":7021,"scène</w>":7022,"vaalze</w>":7023,"nors</w>":7024,"normaal</w>":7025,"spultje</w>":7026,"genade</w>":7027,"kristjaô":7028,"asjeblieft</w>":7029,"knijpt</w>":7030,"plotseling</w>":7031,"rolle":7032,"wonderlijk</w>":7033,"steert</w>":7034,"gemaine</w>":7035,"schijnen</w>":7036,"schijper</w>":7037,"oppo</w>":7038,"terugge":7039,"prakkeza":7040,"potbounder</w>":7041,"weggejaagd</w>":7042,"zöndag</w>":7043,"zöndags</w>":7044,"golft</w>":7045,"hiér</w>":7046,"mijnde</w>":7047,"preekstoel</w>":7048,"twijdonker</w>":7049,"heege</w>":7050,"leidde</w>":7051,"zaip</w>":7052,"spoedig</w>":7053,"underwiel</w>":7054,"essant</w>":7055,"kolen":7056,"twinti":7057,"ouderwe":7058,"bedacht":7059,"bedaren</w>":7060,"beterde</w>":7061,"beleefd</w>":7062,"beleefder</w>":7063,"betoalen</w>":7064,"betoald</w>":7065,"oorlogs":7066,"boksen</w>":7067,"boksem</w>":7068,"mannetje</w>":7069,"winkels</w>":7070,"goedkeur":7071,"rouwband</w>":7072,"rouwbaand</w>":7073,"weerskanten</w>":7074,"speelgoed</w>":7075,"schuurdeur</w>":7076,"kwikstaart</w>":7077,"kwartiersvolk</w>":7078,"adem</w>":7079,"honger</w>":7080,"geslacht</w>":7081,"geslachten</w>":7082,"zegger</w>":7083,"bedrief</w>":7084,"vergeet</w>":7085,"zaterdaga":7086,"keunenk</w>":7087,"sloeten</w>":7088,"prachtband</w>":7089,"dankbaar</w>":7090,"probeerde</w>":7091,"smeerlap</w>":7092,"atoombom</w>":7093,"amerik":7094,"ddeln</w>":7095,"emmers</w>":7096,"eilerts</w>":7097,"vvelt</w>":7098,"angstig</w>":7099,"anners</w>":7100,"begeer</w>":7101,"bevestigen</w>":7102,"schijnt</w>":7103,"gruide</w>":7104,"duurst</w>":7105,"waarschuw":7106,"blommen</w>":7107,"stroekel</w>":7108,"voorjaars":7109,"bontekou</w>":7110,"bontekoe</w>":7111,"zondagse</w>":7112,"sproak</w>":7113,"borrels</w>":7114,"boomgaard</w>":7115,"schaatsenrij":7116,"aiwige</w>":7117,"aiwighaid</w>":7118,"snikjong</w>":7119,"ongeduld</w>":7120,"ongeduldig</w>":7121,"begrips</w>":7122,"kapitein</w>":7123,"kapiteins</w>":7124,"aigoale</w>":7125,"blanke</w>":7126,"frisch</w>":7127,"honderd":7128,"kwijtgeraakt</w>":7129,"swaarde</w>":7130,"vloog</w>":7131,"oareg</w>":7132,"stoetwief</w>":7133,"onnozel</w>":7134,"bepaald</w>":7135,"bedudt</w>":7136,"bedankt</w>":7137,"narrig</w>":7138,"dochters</w>":7139,"jongkerel</w>":7140,"vattien</w>":7141,"royaal</w>":7142,"stilletjes</w>":7143,"snoetje</w>":7144,"snuitje</w>":7145,"kantoortje</w>":7146,"rötterge</w>":7147,"harmonica</w>":7148,"boorden</w>":7149,"canade":7150,"coupé</w>":7151,"fratsen</w>":7152,"quessant</w>":7153,"vleugelslag</w>":7154,"zalig</w>":7155,"íjn</w>":7156,"oost-":7157,"industrie</w>":7158,"medelijden</w>":7159,"meelkist</w>":7160,"bedekt</w>":7161,"dochde</w>":7162,"zokswat</w>":7163,"botter-":7164,"tegemoet</w>":7165,"jongelui</w>":7166,"traauwd</w>":7167,"vrijgezel</w>":7168,"jannever</w>":7169,"graitje</w>":7170,"herfstwind</w>":7171,"langzoamerhand</w>":7172,"jobk-oom</w>":7173,"fatsoenlijk</w>":7174,"kwikstaart-vrijer</w>":7175,"albertine":7176,"-meu</w>":7177,"jachtweide</w>":7178,"sopr":7179,"smart</w>":7180,"viendt</w>":7181,"wás</w>":7182,"oogenblik</w>":7183,"lelke</w>":7184,"verdold</w>":7185,"veilig</w>":7186,"uithouden</w>":7187,"bodem</w>":7188,"spersoon</w>":7189,"braandt</w>":7190,"wieshaid</w>":7191,"kleermaker</w>":7192,"pottenboender</w>":7193,"fabrikanten</w>":7194,"pereboom</w>":7195,"perenboom</w>":7196,"brutale</w>":7197,"snuffelde</w>":7198,"hinderkie</w>":7199,"presente":7200,"schoedeband</w>":7201,"accepte":7202,"apothe":7203,"ginds</w>":7204,"hallee</w>":7205,"laarzen</w>":7206,"mulder</w>":7207,"ochot</w>":7208,"vullen</w>":7209,"———</w>":7210,"enthousi":7211,"gemene</w>":7212,"gezelschap</w>":7213,"gevangen":7214,"onschuldig</w>":7215,"weenekes</w>":7216,"belofte</w>":7217,"bedoaren</w>":7218,"begelei":7219,"beduusd</w>":7220,"notaris</w>":7221,"verhuurd</w>":7222,"rebulie</w>":7223,"deuntje</w>":7224,"destijds</w>":7225,"omgeving</w>":7226,"graôg</w>":7227,"sproeit</w>":7228,"jokkob</w>":7229,"luttek</w>":7230,"slaperig</w>":7231,"kieviten</w>":7232,"hollandsche</w>":7233,"roggebrood</w>":7234,"kickstar":7235,"borkumer</w>":7236,"verschijnt</w>":7237,"brandgeveldeur</w>":7238,"brongersheerd</w>":7239,"snorre-":7240,"onverwachts</w>":7241,"kilogram</w>":7242,"goedkeurend</w>":7243,"'n":7244,"'een</w>":7245,"-en-":7246,"-agnes</w>":7247,"100</w>":7248,"25</w>":7249,"ar</w>":7250,"ac</w>":7251,"amen</w>":7252,"aid</w>":7253,"apr":7254,"aff":7255,"abels</w>":7256,"bijn</w>":7257,"blu":7258,"bree":7259,"buur</w>":7260,"blai":7261,"bluit</w>":7262,"ballen</w>":7263,"bôkte</w>":7264,"caat</w>":7265,"caf":7266,"dö":7267,"dr</w>":7268,"d-</w>":7269,"doet":7270,"dèn</w>":7271,"ddel</w>":7272,"dsche</w>":7273,"dvat</w>":7274,"dloos</w>":7275,"dóó":7276,"dèl</w>":7277,"ec":7278,"ein</w>":7279,"ege</w>":7280,"emp":7281,"eschijn</w>":7282,"emot":7283,"fles</w>":7284,"fraa":7285,"fteg</w>":7286,"gt":7287,"gn</w>":7288,"goar</w>":7289,"gas</w>":7290,"gijt</w>":7291,"gleed</w>":7292,"gongen</w>":7293,"glieks</w>":7294,"gön":7295,"gmaal":7296,"glende</w>":7297,"gnoli":7298,"há":7299,"hoan</w>":7300,"haak</w>":7301,"hôl</w>":7302,"honk</w>":7303,"hôm</w>":7304,"háár</w>":7305,"héél</w>":7306,"im</w>":7307,"ic</w>":7308,"ike</w>":7309,"ichten</w>":7310,"ikes</w>":7311,"idee":7312,"izon</w>":7313,"ici":7314,"iode</w>":7315,"imachines</w>":7316,"jè":7317,"já</w>":7318,"joe":7319,"jui":7320,"jur":7321,"jais</w>":7322,"jaag</w>":7323,"jers</w>":7324,"kt":7325,"kbij</w>":7326,"kken":7327,"kons</w>":7328,"kuren</w>":7329,"khou":7330,"kèn</w>":7331,"kale</w>":7332,"klied</w>":7333,"kspan</w>":7334,"ln</w>":7335,"la</w>":7336,"lik</w>":7337,"lst</w>":7338,"lop":7339,"lver</w>":7340,"l'k</w>":7341,"lkaar</w>":7342,"loek</w>":7343,"lers</w>":7344,"lpe</w>":7345,"longen</w>":7346,"mal":7347,"mun":7348,"mpt</w>":7349,"munt</w>":7350,"mteg</w>":7351,"mopp":7352,"mverhe":7353,"nte</w>":7354,"nder</w>":7355,"nnen</w>":7356,"naal</w>":7357,"naait</w>":7358,"noare</w>":7359,"ore":7360,"oten</w>":7361,"oge</w>":7362,"oter</w>":7363,"pon":7364,"pou":7365,"pachter</w>":7366,"poet":7367,"perd</w>":7368,"pse</w>":7369,"panne</w>":7370,"piene</w>":7371,"plicht":7372,"pluu":7373,"poppen</w>":7374,"rden</w>":7375,"raal":7376,"rol</w>":7377,"rren</w>":7378,"ront":7379,"sbe":7380,"swi":7381,"slu":7382,"sar":7383,"sied</w>":7384,"sloo":7385,"swee":7386,"smoo":7387,"sheid</w>":7388,"snoa":7389,"sum":7390,"sof":7391,"senen</w>":7392,"sheer</w>":7393,"swaait</w>":7394,"suist</w>":7395,"swaal":7396,"smoand</w>":7397,"slut</w>":7398,"sklap":7399,"swoare</w>":7400,"ty":7401,"tó":7402,"ta</w>":7403,"tom":7404,"ting</w>":7405,"tacht":7406,"twie":7407,"tim":7408,"taak</w>":7409,"tjonge</w>":7410,"tliek</w>":7411,"thans</w>":7412,"thuus</w>":7413,"tachtig</w>":7414,"tk'n</w>":7415,"vier":7416,"vige</w>":7417,"vlag</w>":7418,"vvels</w>":7419,"vveg</w>":7420,"vmteg</w>":7421,"wend</w>":7422,"wvrouw</w>":7423,"wust</w>":7424,"waalt</w>":7425,"zn</w>":7426,"zaal</w>":7427,"zonder":7428,"zende</w>":7429,"zôl</w>":7430,"zwaal":7431,"zure</w>":7432,"zout":7433,"áls</w>":7434,"èn":7435,"èr</w>":7436,"èlk</w>":7437,"ëven</w>":7438,"ïge</w>":7439,"òl</w>":7440,"ók</w>":7441,"óns</w>":7442,"ôf</w>":7443,"ök</w>":7444,"aaf</w>":7445,"aap</w>":7446,"aane":7447,"aatje</w>":7448,"aasa":7449,"aaierd</w>":7450,"ere</w>":7451,"erven</w>":7452,"ertje</w>":7453,"ernood</w>":7454,"ergste</w>":7455,"ernaartoe</w>":7456,"erfgen":7457,"hei</w>":7458,"hez</w>":7459,"heft</w>":7460,"hekken</w>":7461,"heim":7462,"heide</w>":7463,"hekse</w>":7464,"dak":7465,"daigen</w>":7466,"dakker</w>":7467,"dachtig</w>":7468,"ool</w>":7469,"oogt</w>":7470,"ookjes</w>":7471,"iez":7472,"iek</w>":7473,"iene":7474,"ieders</w>":7475,"waken</w>":7476,"wad'n</w>":7477,"oalen</w>":7478,"oakel":7479,"oakster</w>":7480,"stie</w>":7481,"stal":7482,"stoor</w>":7483,"stoet</w>":7484,"stoar":7485,"storen</w>":7486,"stôk</w>":7487,"enf":7488,"entje</w>":7489,"enig</w>":7490,"enheid</w>":7491,"endje</w>":7492,"ensdag</w>":7493,"endal</w>":7494,"chen</w>":7495,"chien</w>":7496,"chine</w>":7497,"chau":7498,"chic</w>":7499,"chore":7500,"geï":7501,"geur</w>":7502,"geve":7503,"gees</w>":7504,"gedoo":7505,"gesta":7506,"geba":7507,"gekun":7508,"geland</w>":7509,"gedra":7510,"gewel":7511,"gezoe":7512,"gewaiten</w>":7513,"gevangen</w>":7514,"gehaa":7515,"gezeten</w>":7516,"gehaim</w>":7517,"gebroek</w>":7518,"gedreven</w>":7519,"geschoten</w>":7520,"gekhaid</w>":7521,"gedragen</w>":7522,"gegooid</w>":7523,"getrapt</w>":7524,"gewaarsch":7525,"geflikfloo":7526,"gezogen</w>":7527,"getroffen</w>":7528,"gedichten</w>":7529,"gespeeld</w>":7530,"ijven</w>":7531,"ijzer</w>":7532,"ijkerd</w>":7533,"oetru":7534,"ones</w>":7535,"onneu":7536,"onafge":7537,"onverschil":7538,"weel</w>":7539,"welt</w>":7540,"wedder":7541,"westenwind</w>":7542,"westewiend</w>":7543,"inder":7544,"inzien</w>":7545,"inzette</w>":7546,"inains</w>":7547,"inrichting</w>":7548,"inrukken</w>":7549,"inkt":7550,"lede":7551,"lelijk</w>":7552,"legd</w>":7553,"lette</w>":7554,"lekker":7555,"lekhaid</w>":7556,"lepels</w>":7557,"ouwe":7558,"mest</w>":7559,"melijk</w>":7560,"meerde</w>":7561,"mesje</w>":7562,"mevrouwtje</w>":7563,"zes":7564,"zelen</w>":7565,"zeuren</w>":7566,"zems</w>":7567,"zegge</w>":7568,"beë":7569,"bes</w>":7570,"bewe":7571,"bela":7572,"bezi":7573,"belen</w>":7574,"bemo":7575,"beman":7576,"bezit</w>":7577,"bedden</w>":7578,"bedou":7579,"begeer":7580,"bedacht</w>":7581,"bekieken</w>":7582,"bekijken</w>":7583,"beschou":7584,"beschaa":7585,"beschoa":7586,"beloop</w>":7587,"beloof</w>":7588,"bellen</w>":7589,"beloven</w>":7590,"besneeuw":7591,"begeren</w>":7592,"noden</w>":7593,"nogmaal":7594,"allang</w>":7595,"althans</w>":7596,"verze":7597,"verde":7598,"vermoe":7599,"veroor":7600,"verho":7601,"vervo":7602,"verwij":7603,"vergaan</w>":7604,"verwar":7605,"vergun":7606,"verlang</w>":7607,"vermin":7608,"verdacht</w>":7609,"vertrekt</w>":7610,"versje</w>":7611,"vernemen</w>":7612,"verlet</w>":7613,"vergre":7614,"vertrok</w>":7615,"vermoei":7616,"vergat</w>":7617,"verbrand</w>":7618,"verhalen</w>":7619,"verwacht":7620,"verbonden</w>":7621,"verspeulen</w>":7622,"verbaal</w>":7623,"verhoal</w>":7624,"verrichten</w>":7625,"vervlogen</w>":7626,"verzeker":7627,"verzinnen</w>":7628,"veraandern</w>":7629,"ree</w>":7630,"reg</w>":7631,"rechten</w>":7632,"reis":7633,"regle":7634,"reuk</w>":7635,"haôl</w>":7636,"dek</w>":7637,"deel":7638,"detje</w>":7639,"deigen</w>":7640,"desn":7641,"degheid</w>":7642,"om-":7643,"omt</w>":7644,"omweg</w>":7645,"niet":7646,"niedeg</w>":7647,"niedegheid</w>":7648,"schaande</w>":7649,"schommelt</w>":7650,"neur":7651,"neschien</w>":7652,"netoares</w>":7653,"elle</w>":7654,"elijk</w>":7655,"elief</w>":7656,"naor</w>":7657,"lam</w>":7658,"laggen</w>":7659,"lapt</w>":7660,"lastige</w>":7661,"aarm":7662,"aart</w>":7663,"aarde</w>":7664,"aarmen</w>":7665,"aardige</w>":7666,"vest":7667,"vesi":7668,"veziede</w>":7669,"uil</w>":7670,"zoden</w>":7671,"zoend</w>":7672,"zodr":7673,"zojuist</w>":7674,"zoëven</w>":7675,"vre</w>":7676,"vroor</w>":7677,"vraagd</w>":7678,"zakje</w>":7679,"zachies</w>":7680,"zagg'n</w>":7681,"uren":7682,"wip</w>":7683,"wipt</w>":7684,"wirre":7685,"ord":7686,"orren</w>":7687,"ordig</w>":7688,"grou":7689,"grillen</w>":7690,"dering</w>":7691,"dermesienen</w>":7692,"aange</w>":7693,"aanging</w>":7694,"aansteken</w>":7695,"aanval</w>":7696,"aantal</w>":7697,"aantoalen</w>":7698,"aandachtig</w>":7699,"op-":7700,"opkieken</w>":7701,"opzetten</w>":7702,"oppass":7703,"oppers</w>":7704,"opruimen</w>":7705,"rug":7706,"ruders</w>":7707,"runt</w>":7708,"rudermesienen</w>":7709,"moede</w>":7710,"moesten</w>":7711,"olten</w>":7712,"olders</w>":7713,"chtend</w>":7714,"chteg</w>":7715,"oorzaak</w>":7716,"komp</w>":7717,"komst":7718,"bogen</w>":7719,"bocht</w>":7720,"bokken</w>":7721,"botten</w>":7722,"teis</w>":7723,"telek</w>":7724,"tekent</w>":7725,"rakt</w>":7726,"rapen</w>":7727,"raôl":7728,"razend</w>":7729,"maten</w>":7730,"maôr</w>":7731,"mags</w>":7732,"mager</w>":7733,"maiden</w>":7734,"mata":7735,"machtig</w>":7736,"maist</w>":7737,"matige</w>":7738,"magnoli":7739,"liter</w>":7740,"zige</w>":7741,"zierig</w>":7742,"zilver</w>":7743,"dikste</w>":7744,"liegt</w>":7745,"lieste</w>":7746,"gaven</w>":7747,"ket":7748,"ketten</w>":7749,"ketel</w>":7750,"ketting</w>":7751,"spoa":7752,"spor":7753,"spert</w>":7754,"sponnen</w>":7755,"spint</w>":7756,"spoaren</w>":7757,"spoard</w>":7758,"brou":7759,"bring</w>":7760,"bril</w>":7761,"braand</w>":7762,"uning</w>":7763,"droog":7764,"dronkt</w>":7765,"lijst</w>":7766,"lijver</w>":7767,"lijker</w>":7768,"lijve</w>":7769,"moz</w>":7770,"landen</w>":7771,"langde</w>":7772,"landschap</w>":7773,"luk</w>":7774,"luik</w>":7775,"luwen</w>":7776,"lustig</w>":7777,"lullen</w>":7778,"beroo":7779,"berou":7780,"berei":7781,"berichten</w>":7782,"handje</w>":7783,"hui</w>":7784,"huzen</w>":7785,"hulpe</w>":7786,"hoi</w>":7787,"hozen</w>":7788,"hogere</w>":7789,"genaam</w>":7790,"menaa":7791,"mensch":7792,"menijer</w>":7793,"jongd</w>":7794,"jonkhaid</w>":7795,"zuik</w>":7796,"zunig</w>":7797,"zuinig</w>":7798,"werel":7799,"werren</w>":7800,"kron":7801,"krom":7802,"kraan":7803,"kropen</w>":7804,"kroeg</w>":7805,"kroon</w>":7806,"kroug</w>":7807,"vroulu</w>":7808,"ard</w>":7809,"armoe</w>":7810,"koa</w>":7811,"koien</w>":7812,"traag</w>":7813,"troag</w>":7814,"troefd</w>":7815,"kwajongen</w>":7816,"vatken</w>":7817,"wordde</w>":7818,"worr'n</w>":7819,"klaagt</w>":7820,"kloos</w>":7821,"klouk</w>":7822,"dudelijk</w>":7823,"dudelk</w>":7824,"dubbel</w>":7825,"d'haand</w>":7826,"d'oavend</w>":7827,"d'haarten</w>":7828,"kerde</w>":7829,"eert</w>":7830,"eerlij":7831,"lood</w>":7832,"waarmee</w>":7833,"waarmte</w>":7834,"hoeden</w>":7835,"hoeven</w>":7836,"hoelt</w>":7837,"hoelde</w>":7838,"aalle</w>":7839,"steel</w>":7840,"stemm":7841,"stemverhe":7842,"mane</w>":7843,"manden</w>":7844,"maneschijn</w>":7845,"weekend</w>":7846,"achtste</w>":7847,"achtige</w>":7848,"kar</w>":7849,"kabou":7850,"kaps":7851,"kastan":7852,"kauwt</w>":7853,"kaggel</w>":7854,"kenne":7855,"pai":7856,"paô":7857,"pap</w>":7858,"pasen</w>":7859,"pamp":7860,"pakjes</w>":7861,"winst</w>":7862,"winning</w>":7863,"wandel":7864,"hooi":7865,"denen</w>":7866,"tijds</w>":7867,"tijrd</w>":7868,"tijdens</w>":7869,"tern</w>":7870,"terrein</w>":7871,"prijs</w>":7872,"pronk</w>":7873,"pronken</w>":7874,"prikt</w>":7875,"prout</w>":7876,"haard":7877,"haarze</w>":7878,"slik</w>":7879,"slof</w>":7880,"slor</w>":7881,"slordig</w>":7882,"doov</w>":7883,"doosje</w>":7884,"geld":7885,"geln</w>":7886,"geldt</w>":7887,"gelogen</w>":7888,"geloaten</w>":7889,"sterker</w>":7890,"sterveling</w>":7891,"wilde":7892,"blui":7893,"vends</w>":7894,"vensters</w>":7895,"ventster</w>":7896,"geri":7897,"gerd</w>":7898,"geroo":7899,"geree":7900,"staô":7901,"stain":7902,"stail</w>":7903,"stads":7904,"stapel</w>":7905,"studie":7906,"wiegt</w>":7907,"wienen</w>":7908,"overige</w>":7909,"overloaten</w>":7910,"overleggen</w>":7911,"overwonnen</w>":7912,"overhemd</w>":7913,"overvloe":7914,"stroom":7915,"tuf</w>":7916,"tuun</w>":7917,"tuinen</w>":7918,"mouije</w>":7919,"moaneschien</w>":7920,"ffie</w>":7921,"ffel":7922,"ffig</w>":7923,"fferd</w>":7924,"ffels</w>":7925,"ffet</w>":7926,"ffelt</w>":7927,"ffeur</w>":7928,"ffec":7929,"baid</w>":7930,"bazen</w>":7931,"bakte</w>":7932,"baiern</w>":7933,"baby</w>":7934,"zeln</w>":7935,"harin":7936,"harte</w>":7937,"harre":7938,"harbarg</w>":7939,"kleu":7940,"kleden</w>":7941,"kledin":7942,"voorhoofd</w>":7943,"voortuin</w>":7944,"voorouders</w>":7945,"voorkeur</w>":7946,"slai":7947,"slacht":7948,"slaif</w>":7949,"kans</w>":7950,"treu":7951,"treur":7952,"treffen</w>":7953,"maakten</w>":7954,"loge</w>":7955,"lokken</w>":7956,"loerde</w>":7957,"vochtig</w>":7958,"loag</w>":7959,"kelk</w>":7960,"kelde</w>":7961,"laantje</w>":7962,"vollen</w>":7963,"volgden</w>":7964,"wijk</w>":7965,"wijken</w>":7966,"wijzen</w>":7967,"wijsheid</w>":7968,"woensdag</w>":7969,"richter</w>":7970,"eenzaa":7971,"eenvou":7972,"ries</w>":7973,"rieken</w>":7974,"riekdom</w>":7975,"jassen</w>":7976,"vanmiddag</w>":7977,"vanoavend</w>":7978,"vanneis</w>":7979,"afgaan</w>":7980,"laagt</w>":7981,"ondergaan</w>":7982,"onderscheid</w>":7983,"onderwaal</w>":7984,"onderhandel":7985,"onderboksem</w>":7986,"dommit</w>":7987,"tellen</w>":7988,"telijke</w>":7989,"meegenomen</w>":7990,"meestal</w>":7991,"zulk</w>":7992,"zulver</w>":7993,"boegen</w>":7994,"kiep</w>":7995,"oaf-aan</w>":7996,"veuruut</w>":7997,"veurdij":7998,"veurjaôr</w>":7999,"veurvalen</w>":8000,"veurtoene</w>":8001,"veurgees</w>":8002,"houkje</w>":8003,"houwt</w>":8004,"hounder</w>":8005,"uw'":8006,"ttjes</w>":8007,"holden</w>":8008,"holland</w>":8009,"holler</w>":8010,"bukken</w>":8011,"bukte</w>":8012,"buffet</w>":8013,"rog</w>":8014,"rotter":8015,"ainton":8016,"aintonig</w>":8017,"ainernood</w>":8018,"schaô":8019,"schamele</w>":8020,"boerhoorn</w>":8021,"boerrichter</w>":8022,"tent</w>":8023,"tenband</w>":8024,"hoorden</w>":8025,"tsie":8026,"tsel</w>":8027,"tsoen</w>":8028,"nijs</w>":8029,"nijsgierig</w>":8030,"ware</w>":8031,"kret</w>":8032,"krelis</w>":8033,"groten</w>":8034,"groent</w>":8035,"koale</w>":8036,"vinci":8037,"doadelk</w>":8038,"zieden</w>":8039,"gunt</w>":8040,"anderdags</w>":8041,"laidjes</w>":8042,"uitzien</w>":8043,"uitstekend</w>":8044,"uitkering</w>":8045,"kiste</w>":8046,"kikker</w>":8047,"kikst</w>":8048,"kiddeln</w>":8049,"éést</w>":8050,"klas</w>":8051,"klai</w>":8052,"klain":8053,"klaver</w>":8054,"klappen</w>":8055,"oetgaôn</w>":8056,"oetkeren</w>":8057,"midzummer":8058,"praô":8059,"pratend</w>":8060,"knei</w>":8061,"knechtje</w>":8062,"ôlde</w>":8063,"ôllen</w>":8064,"tion":8065,"tiert</w>":8066,"blau":8067,"bladjes</w>":8068,"brieven</w>":8069,"bije</w>":8070,"bijer</w>":8071,"bijelkaar</w>":8072,"blijde</w>":8073,"blijke</w>":8074,"daarginds</w>":8075,"wolst</w>":8076,"broen</w>":8077,"hoalt</w>":8078,"roetje</w>":8079,"proatje</w>":8080,"drukken</w>":8081,"route</w>":8082,"rouwt</w>":8083,"zoolang</w>":8084,"gelukken</w>":8085,"kraben</w>":8086,"krabbe":8087,"sem":8088,"segoar</w>":8089,"kool":8090,"kooi</w>":8091,"graven</w>":8092,"grazen</w>":8093,"pocht</w>":8094,"postbode</w>":8095,"vraid</w>":8096,"linde":8097,"linten</w>":8098,"minne</w>":8099,"wenk</w>":8100,"wennig</w>":8101,"wenschen</w>":8102,"wensk</w>":8103,"rechter</w>":8104,"rechtstree":8105,"dsdien</w>":8106,"rijken</w>":8107,"rijkdom</w>":8108,"pein":8109,"pedde</w>":8110,"pepier</w>":8111,"noamen</w>":8112,"noaber</w>":8113,"noamiddag</w>":8114,"noagels</w>":8115,"donkeren</w>":8116,"voale</w>":8117,"stoffig</w>":8118,"baaiden</w>":8119,"steeg</w>":8120,"steeke</w>":8121,"duim</w>":8122,"duivel":8123,"fabrieks":8124,"vrees</w>":8125,"vremd</w>":8126,"perman":8127,"permit":8128,"periode</w>":8129,"gelegd</w>":8130,"geleerde</w>":8131,"zongt</w>":8132,"nern</w>":8133,"wonsdoags</w>":8134,"buik":8135,"bloeide</w>":8136,"bloempje</w>":8137,"bloedeigen</w>":8138,"deling</w>":8139,"biz</w>":8140,"bidden</w>":8141,"zunne":8142,"zundag</w>":8143,"sprookjes</w>":8144,"bruu":8145,"brug</w>":8146,"brutoa":8147,"brutaal</w>":8148,"bruloft</w>":8149,"draô":8150,"draigen</w>":8151,"trokt</w>":8152,"korter</w>":8153,"ruig</w>":8154,"tapt</w>":8155,"takel</w>":8156,"tabak</w>":8157,"herenk</w>":8158,"herberg</w>":8159,"hersenen</w>":8160,"beetk'n</w>":8161,"eindelijk</w>":8162,"eindeloos</w>":8163,"ssien</w>":8164,"sses</w>":8165,"ssing</w>":8166,"ssies</w>":8167,"deegs</w>":8168,"mars":8169,"vieve</w>":8170,"straf":8171,"strakke</w>":8172,"dorie</w>":8173,"dorpje</w>":8174,"grooten</w>":8175,"mensje</w>":8176,"mensdom</w>":8177,"slippen":8178,"borg</w>":8179,"borgen</w>":8180,"mpe</w>":8181,"boonen</w>":8182,"bannen</w>":8183,"bange</w>":8184,"schuddel":8185,"hiem</w>":8186,"hielden</w>":8187,"waize</w>":8188,"waike</w>":8189,"doem</w>":8190,"hijt</w>":8191,"stoep</w>":8192,"wegdreef</w>":8193,"wegzinkt</w>":8194,"snik</w>":8195,"zorgde</w>":8196,"zorgden</w>":8197,"morgen":8198,"zomers</w>":8199,"vaôren</w>":8200,"duud":8201,"blikken</w>":8202,"stelijke</w>":8203,"vlais</w>":8204,"vlakbij</w>":8205,"staarf</w>":8206,"vertra":8207,"doarvan</w>":8208,"doardeur</w>":8209,"koelte</w>":8210,"toak</w>":8211,"toai</w>":8212,"zenen</w>":8213,"biester</w>":8214,"stiege</w>":8215,"stieve</w>":8216,"loeken</w>":8217,"ijntje</w>":8218,"deurzetten</w>":8219,"schouders</w>":8220,"langs":8221,"jeuzele":8222,"ksken</w>":8223,"ofsproken</w>":8224,"kruu":8225,"kruit</w>":8226,"krunen</w>":8227,"kruust</w>":8228,"krullen</w>":8229,"vitten</w>":8230,"sicht</w>":8231,"sikk":8232,"woond</w>":8233,"gesponnen</w>":8234,"gespijkerd</w>":8235,"welge":8236,"welvaart</w>":8237,"raaize</w>":8238,"raampje</w>":8239,"trap</w>":8240,"haôven":8241,"drink</w>":8242,"sucht</w>":8243,"sukker":8244,"sommi":8245,"verkeken</w>":8246,"pleit</w>":8247,"plein</w>":8248,"plezierig</w>":8249,"daipe</w>":8250,"gevaar</w>":8251,"vork</w>":8252,"vorm</w>":8253,"vorst</w>":8254,"vormen</w>":8255,"geboden</w>":8256,"vroege</w>":8257,"vroegte</w>":8258,"nucht</w>":8259,"nunen</w>":8260,"nuvere</w>":8261,"smoor":8262,"aigen":8263,"eieren</w>":8264,"haals</w>":8265,"haalve</w>":8266,"lerig</w>":8267,"tougelieks</w>":8268,"dagsche</w>":8269,"zaaien</w>":8270,"keuken":8271,"genot</w>":8272,"snikkend</w>":8273,"zöcht</w>":8274,"zöchte</w>":8275,"verdijnde</w>":8276,"verdwienen</w>":8277,"schoap</w>":8278,"schoamde</w>":8279,"schoamele</w>":8280,"hoogst</w>":8281,"doom'":8282,"doomnij</w>":8283,"stubbers</w>":8284,"eet":8285,"gieren</w>":8286,"lichtje</w>":8287,"kous</w>":8288,"kousen":8289,"tiek</w>":8290,"tieds</w>":8291,"stoulen</w>":8292,"verstaand</w>":8293,"opgetogen</w>":8294,"luutke</w>":8295,"pikken</w>":8296,"pieren</w>":8297,"rooi</w>":8298,"roosje</w>":8299,"rooimachines</w>":8300,"vouwen</w>":8301,"zörgd</w>":8302,"oog'n</w>":8303,"oogst</w>":8304,"drokt</w>":8305,"drokker</w>":8306,"dije</w>":8307,"dijt</w>":8308,"pantal":8309,"pankouk</w>":8310,"dinks</w>":8311,"dings":8312,"gouw</w>":8313,"gouden</w>":8314,"greiden</w>":8315,"groeid</w>":8316,"gooiden</w>":8317,"zuiden</w>":8318,"zuiver</w>":8319,"zuidoo":8320,"begund</w>":8321,"barge</w>":8322,"barre</w>":8323,"barries</w>":8324,"gestolen</w>":8325,"mainste</w>":8326,"drifteg</w>":8327,"huisjes</w>":8328,"schippers</w>":8329,"knar":8330,"knapte</w>":8331,"knauwt</w>":8332,"plak</w>":8333,"plakken</w>":8334,"onbekende</w>":8335,"onbeschaamde</w>":8336,"onbeschoamde</w>":8337,"schrol</w>":8338,"schrale</w>":8339,"slaap":8340,"doodsloagen</w>":8341,"doodslaan</w>":8342,"polder</w>":8343,"polten</w>":8344,"poller</w>":8345,"vliegen</w>":8346,"maônd</w>":8347,"kont</w>":8348,"piet</w>":8349,"piepke</w>":8350,"pelzaaier</w>":8351,"soen":8352,"soden</w>":8353,"soci":8354,"sodemie":8355,"snap</w>":8356,"snaren</w>":8357,"snappen</w>":8358,"allerdeegs</w>":8359,"trilt</w>":8360,"eigentliek</w>":8361,"bulten</w>":8362,"kuske</w>":8363,"vreem":8364,"onvertogen</w>":8365,"schrijver</w>":8366,"aardappel</w>":8367,"brede</w>":8368,"burger":8369,"burger</w>":8370,"pret</w>":8371,"prefester</w>":8372,"heurden</w>":8373,"regenwind</w>":8374,"gruzele":8375,"körf</w>":8376,"körven</w>":8377,"miezen</w>":8378,"tjen</w>":8379,"daôdelk</w>":8380,"moeizaam</w>":8381,"maarken</w>":8382,"maarkt</w>":8383,"tilde</w>":8384,"gewoe":8385,"verdrietig</w>":8386,"flesje</w>":8387,"kaalver</w>":8388,"bedtijd</w>":8389,"lichoam</w>":8390,"kraaien</w>":8391,"klokt</w>":8392,"klokke</w>":8393,"kooplieden</w>":8394,"fraans</w>":8395,"maandag</w>":8396,"vijr</w>":8397,"vijfde</w>":8398,"zwichten</w>":8399,"zwaarven</w>":8400,"deuze</w>":8401,"deupt</w>":8402,"deuske</w>":8403,"börger</w>":8404,"goande</w>":8405,"sjoe":8406,"zijl</w>":8407,"zijden</w>":8408,"zijnen</w>":8409,"strepen</w>":8410,"onnerste</w>":8411,"onnergoan</w>":8412,"onnergang</w>":8413,"kofje":8414,"prootend</w>":8415,"strokarton</w>":8416,"aôfscheid</w>":8417,"fluiten</w>":8418,"fluisterde</w>":8419,"schuiven</w>":8420,"schuilen</w>":8421,"lamy</w>":8422,"vrumde</w>":8423,"liefste</w>":8424,"bloum</w>":8425,"bloudaigen</w>":8426,"schemeren</w>":8427,"knie</w>":8428,"heilig</w>":8429,"scholder</w>":8430,"scholler</w>":8431,"spiekerd</w>":8432,"evengoed</w>":8433,"feliet</w>":8434,"felici":8435,"zóo</w>":8436,"zó'n</w>":8437,"zeupke</w>":8438,"schoem</w>":8439,"schillen</w>":8440,"schilbrande":8441,"zachtkes</w>":8442,"uitgehaald</w>":8443,"pekeler</w>":8444,"schoenmaker</w>":8445,"flarden</w>":8446,"plun":8447,"plankje</w>":8448,"smal</w>":8449,"smakt</w>":8450,"smakken</w>":8451,"snijbonen</w>":8452,"bedroe":8453,"verwaand</w>":8454,"scherpe</w>":8455,"vrouwspersoon</w>":8456,"kovvie":8457,"scheldt</w>":8458,"schelling</w>":8459,"persies</w>":8460,"personen</w>":8461,"schippersvrouw</w>":8462,"schippersjong</w>":8463,"schippersvrau</w>":8464,"boal</w>":8465,"boane</w>":8466,"cichore":8467,"fortuin</w>":8468,"kiener</w>":8469,"sinaasa":8470,"sindsdien</w>":8471,"stört</w>":8472,"sprekend</w>":8473,"gordienen</w>":8474,"kilo</w>":8475,"mijnen</w>":8476,"wussen</w>":8477,"zwak</w>":8478,"zwaluwen</w>":8479,"schraiwt</w>":8480,"schraiwde</w>":8481,"zummerregen</w>":8482,"zummeroavend</w>":8483,"daaier</w>":8484,"mmend</w>":8485,"stoaltje</w>":8486,"belle</w>":8487,"bellamy</w>":8488,"begript</w>":8489,"schriever</w>":8490,"speulde</w>":8491,"zomeravond</w>":8492,"zölfde</w>":8493,"compleet</w>":8494,"knopen</w>":8495,"pluum":8496,"taaske</w>":8497,"stuiver</w>":8498,"gedonder</w>":8499,"westerdiep</w>":8500,"westerdijp</w>":8501,"schienen</w>":8502,"aangekle":8503,"zichtbaar</w>":8504,"trippelt</w>":8505,"scheiding</w>":8506,"scheidenen</w>":8507,"dörp</w>":8508,"dörpke</w>":8509,"nieuwsgierig</w>":8510,"schare</w>":8511,"kwartjes</w>":8512,"slaôgen</w>":8513,"koffieketel</w>":8514,"eeuwig</w>":8515,"schrobber</w>":8516,"glanst</w>":8517,"poal</w>":8518,"ploeteren</w>":8519,"áál</w>":8520,"dainder</w>":8521,"dainst</w>":8522,"stijnen</w>":8523,"gebruikte</w>":8524,"schienvat</w>":8525,"schienvatken</w>":8526,"vraauwlu":8527,"brooddronken</w>":8528,"broodwinning</w>":8529,"broodventster</w>":8530,"passeren</w>":8531,"kindertijd</w>":8532,"fatsoen</w>":8533,"groningse</w>":8534,"fluweel</w>":8535,"vaals</w>":8536,"onthouden</w>":8537,"veegt</w>":8538,"handelde</w>":8539,"handelaars</w>":8540,"genadig</w>":8541,"eerappel</w>":8542,"blode</w>":8543,"blote</w>":8544,"ekster</w>":8545,"kuiper</w>":8546,"kuikaalf</w>":8547,"ploert</w>":8548,"vaaier</w>":8549,"steerns</w>":8550,"gemakkelijk</w>":8551,"verbeelden</w>":8552,"verbeelding</w>":8553,"verbeeldens</w>":8554,"nederlands</w>":8555,"teminnent</w>":8556,"steukelen</w>":8557,"moanden</w>":8558,"moandag</w>":8559,"moanlicht</w>":8560,"harmonie</w>":8561,"aôvens</w>":8562,"prakkezij":8563,"zöndagsche</w>":8564,"hierheen</w>":8565,"möllen":8566,"heette</w>":8567,"verantwoor":8568,"zaiken":8569,"vair":8570,"vailig</w>":8571,"cintjes</w>":8572,"hörn</w>":8573,"hörns</w>":8574,"vari":8575,"vlinder</w>":8576,"vlinders</w>":8577,"weduwvrouw</w>":8578,"wezenliek</w>":8579,"ouderdom</w>":8580,"bemoeien</w>":8581,"zuudoo":8582,"triesterg</w>":8583,"hoofden</w>":8584,"sluip</w>":8585,"sluipt</w>":8586,"goedkoop</w>":8587,"vogelzao":8588,"ontdekt</w>":8589,"ontdekken</w>":8590,"spektakel</w>":8591,"gemeente":8592,"frans</w>":8593,"rillend</w>":8594,"toont</w>":8595,"toond</w>":8596,"vloekte</w>":8597,"zere</w>":8598,"starend</w>":8599,"zevende</w>":8600,"bedaard</w>":8601,"verrassing</w>":8602,"verspeeld</w>":8603,"keunink</w>":8604,"handvol</w>":8605,"sloegen</w>":8606,"kleinzoon</w>":8607,"dankboar</w>":8608,"probeert</w>":8609,"absoluut</w>":8610,"amerika":8611,"fluustern</w>":8612,"haanden</w>":8613,"pluim</w>":8614,"vlijm</w>":8615,"vörken</w>":8616,"zwoare</w>":8617,"meenens</w>":8618,"zekerheid</w>":8619,"totale</w>":8620,"vriendin</w>":8621,"vriendelijk</w>":8622,"lijfste</w>":8623,"lijfrente</w>":8624,"motor":8625,"genoegen</w>":8626,"armzalig</w>":8627,"stadjers</w>":8628,"voorjaarsdag</w>":8629,"woaterkret</w>":8630,"schaiten</w>":8631,"feitelijk</w>":8632,"zondagmiddag</w>":8633,"sproake</w>":8634,"waôrheid</w>":8635,"paardenstal</w>":8636,"begripst</w>":8637,"moordenaar</w>":8638,"moordenoar</w>":8639,"augustusmoand</w>":8640,"blank</w>":8641,"dóá":8642,"hèn":8643,"oareghaid</w>":8644,"bestwil</w>":8645,"reuzen":8646,"schroale</w>":8647,"schroabie</w>":8648,"ordentelek</w>":8649,"kranten":8650,"pantovvels</w>":8651,"pantoffels</w>":8652,"kantoorke</w>":8653,"advocaat</w>":8654,"scheuvellooperij</w>":8655,"harmonicoa</w>":8656,"gluien</w>":8657,"horizon</w>":8658,"horloge</w>":8659,"randen</w>":8660,"saachte</w>":8661,"stôkken</w>":8662,"geplaagd</w>":8663,"informeerde</w>":8664,"mestvaalt</w>":8665,"meulen-":8666,"zeuns</w>":8667,"belandde</w>":8668,"verkleumd</w>":8669,"schoorstenen</w>":8670,"wichter":8671,"kampen</w>":8672,"delfziel</w>":8673,"delfzijl</w>":8674,"bedwongen</w>":8675,"stoppellaand</w>":8676,"molenaar</w>":8677,"tussendoor</w>":8678,"agent</w>":8679,"centjes</w>":8680,"dweilen</w>":8681,"etens":8682,"fantast":8683,"glendloos</w>":8684,"gijnent</w>":8685,"koorts</w>":8686,"lèst</w>":8687,"mienent</w>":8688,"offront":8689,"stondig</w>":8690,"gelooft</w>":8691,"geploeterd</w>":8692,"ijzeren</w>":8693,"oethollen</w>":8694,"bewoaren</w>":8695,"verann":8696,"vernimt</w>":8697,"schös":8698,"schortenband</w>":8699,"vrou</w>":8700,"zakdoek</w>":8701,"machteloze</w>":8702,"keekt</w>":8703,"huushol":8704,"weekénde</w>":8705,"wildernis</w>":8706,"kelijkheid</w>":8707,"ritselde</w>":8708,"boetendes</w>":8709,"veurjoarsdag</w>":8710,"buusdouk</w>":8711,"seuvmteg</w>":8712,"kortstondig</w>":8713,"schudkopte</w>":8714,"oogsttijd</w>":8715,"fielseteer</w>":8716,"schoenmakerij</w>":8717,"bombar":8718,"cijfers</w>":8719,"kwestie</w>":8720,"kwintje</w>":8721,"knuts":8722,"plougen</w>":8723,"wél</w>":8724,"getekend</w>":8725,"gedoante</w>":8726,"onaangenaam</w>":8727,"wedevraauw</w>":8728,"bederft</w>":8729,"behoefte</w>":8730,"verboasd</w>":8731,"schiere</w>":8732,"aarfgenoam</w>":8733,"gainain</w>":8734,"lijsterbessen</w>":8735,"moderne</w>":8736,"luwte</w>":8737,"genaamd</w>":8738,"karakter</w>":8739,"haarstwiend</w>":8740,"kindsbeen</w>":8741,"laankoet</w>":8742,"buksen</w>":8743,"schaterlacht</w>":8744,"doagelks</w>":8745,"perbaaiern</w>":8746,"bittere</w>":8747,"slimste</w>":8748,"snuustern</w>":8749,"bliksem":8750,"stelmaoker</w>":8751,"gespannen</w>":8752,"verwondert</w>":8753,"waskelgoud</w>":8754,"scharrelen</w>":8755,"huishoudster</w>":8756,"twintig":8757,"zaterdagavond</w>":8758,"amerika</w>":8759,"waarschuwing</w>":8760,"botter-hille</w>":8761,"albertine-agnes</w>":8762,"gevangenis</w>":8763,"begeleiding</w>":8764,"april</w>":8765,"affijn</w>":8766,"café</w>":8767,"dösken</w>":8768,"emoties</w>":8769,"ideeën</w>":8770,"munten":8771,"raalte</w>":8772,"sarde</w>":8773,"sklaps</w>":8774,"tommies</w>":8775,"tachteg</w>":8776,"aanelkaar</w>":8777,"erfgenaam</w>":8778,"ieneens</w>":8779,"chauffeur</w>":8780,"gekund</w>":8781,"gedrag</w>":8782,"gezoes</w>":8783,"gehaaim</w>":8784,"gewaarschuwd</w>":8785,"geflikflooi</w>":8786,"onneuzel</w>":8787,"onafgebroken</w>":8788,"onverschillig</w>":8789,"ledematen</w>":8790,"bemanning</w>":8791,"beschaamd</w>":8792,"besneeuwde</w>":8793,"nogmaals</w>":8794,"verdedigen</w>":8795,"vervoerd</w>":8796,"vermoeidheid</w>":8797,"reglement</w>":8798,"vesite</w>":8799,"zodra</w>":8800,"raôlte</w>":8801,"matao</w>":8802,"stemming</w>":8803,"kapsones</w>":8804,"pampier</w>":8805,"gereedschap</w>":8806,"overvloed</w>":8807,"kleding":8808,"eenzaamheid</w>":8809,"rechtstreeks</w>":8810,"brutoale</w>":8811,"jeuzelemie</w>":8812,"sikkum</w>":8813,"kousenvoeten</w>":8814,"pantalon</w>":8815,"sodemieter</w>":8816,"gruzelementen</w>":8817,"vogelzaod</w>":8818,"fantastisch</w>":8819,"offrontaaierd</w>":8820,"'j</w>":8821,"'ons</w>":8822,"'nkander</w>":8823,"'koat</w>":8824,"'ar</w>":8825,"-j":8826,"-s":8827,"-t</w>":8828,"-je</w>":8829,"-woar</w>":8830,"-se":8831,"-meneer</w>":8832,"-èn</w>":8833,"-bru":8834,"-hoog</w>":8835,"-mu":8836,"-vuur</w>":8837,"-wit</w>":8838,"-vrijer</w>":8839,"-tik-":8840,"-helle":8841,"-bitter</w>":8842,"-kristjaô":8843,".a":8844,".k</w>":8845,".m</w>":8846,".o</w>":8847,".c</w>":8848,"000</w>":8849,"18</w>":8850,"10</w>":8851,"16</w>":8852,"38</w>":8853,"35</w>":8854,"40</w>":8855,"6000</w>":8856,"70</w>":8857,"aâ":8858,"ai</w>":8859,"aô</w>":8860,"ast":8861,"ate</w>":8862,"aden</w>":8863,"azijn</w>":8864,"achten</w>":8865,"akken</w>":8866,"aster":8867,"app":8868,"att":8869,"adre":8870,"apo":8871,"akk":8872,"akke":8873,"appels</w>":8874,"akker":8875,"agier":8876,"astoe</w>":8877,"amper</w>":8878,"aeil":8879,"averij</w>":8880,"arun":8881,"abuus</w>":8882,"akertje</w>":8883,"ban</w>":8884,"ble":8885,"boor</w>":8886,"baat</w>":8887,"bid</w>":8888,"bil":8889,"bons</w>":8890,"blijk</w>":8891,"bbeg":8892,"bul</w>":8893,"bolle</w>":8894,"balla":8895,"biene</w>":8896,"blui</w>":8897,"böt</w>":8898,"bbo</w>":8899,"btster</w>":8900,"ce":8901,"cu":8902,"ck</w>":8903,"cre":8904,"cont":8905,"ck-":8906,"ctri":8907,"ctober</w>":8908,"c.a":8909,"dá":8910,"dé":8911,"dn</w>":8912,"dd</w>":8913,"di</w>":8914,"dà</w>":8915,"dte</w>":8916,"dwaar":8917,"dpa":8918,"dree":8919,"dders</w>":8920,"donder</w>":8921,"daam</w>":8922,"dding</w>":8923,"dwon":8924,"dlek</w>":8925,"dgedachten</w>":8926,"dijs</w>":8927,"dwonder</w>":8928,"diene</w>":8929,"dvaar":8930,"dzaam</w>":8931,"dbaar</w>":8932,"dverdrie":8933,"dwacht":8934,"ddank</w>":8935,"dáár</w>":8936,"dwaas</w>":8937,"ddo</w>":8938,"djen</w>":8939,"dstrijd</w>":8940,"dplicht":8941,"dwaalt</w>":8942,"ede</w>":8943,"eze</w>":8944,"etje</w>":8945,"epen</w>":8946,"epp":8947,"eds":8948,"edel":8949,"emmer</w>":8950,"evoa</w>":8951,"econ":8952,"eb'n</w>":8953,"emmo</w>":8954,"efluiten</w>":8955,"ff</w>":8956,"fer</w>":8957,"foo":8958,"fon":8959,"fij</w>":8960,"fken</w>":8961,"flan":8962,"fil":8963,"fjes</w>":8964,"frie":8965,"flaa":8966,"frou":8967,"fuut</w>":8968,"fijn":8969,"for</w>":8970,"fluit</w>":8971,"felt</w>":8972,"fstom":8973,"fdes</w>":8974,"fgeval</w>":8975,"fhok</w>":8976,"fschepen</w>":8977,"fstal</w>":8978,"foppo</w>":8979,"fsbe":8980,"féést</w>":8981,"gr</w>":8982,"g.</w>":8983,"gna":8984,"gaar":8985,"gni":8986,"gman</w>":8987,"gaal":8988,"gover":8989,"glijk</w>":8990,"gloa":8991,"guur</w>":8992,"goude</w>":8993,"gaande</w>":8994,"glin":8995,"gies</w>":8996,"gpad</w>":8997,"gort</w>":8998,"gkoamer</w>":8999,"gorde</w>":9000,"glui</w>":9001,"goare</w>":9002,"glend</w>":9003,"géven</w>":9004,"gzang</w>":9005,"gzan":9006,"gaang</w>":9007,"gonderzoek</w>":9008,"gluipt</w>":9009,"gaange</w>":9010,"hò":9011,"his</w>":9012,"hli":9013,"huren</w>":9014,"his":9015,"haauw</w>":9016,"híj</w>":9017,"h.m</w>":9018,"ia</w>":9019,"iten</w>":9020,"ivoor</w>":9021,"imen</w>":9022,"isen</w>":9023,"ikte</w>":9024,"iligt</w>":9025,"ibi":9026,"ische</w>":9027,"isten":9028,"itig</w>":9029,"iot</w>":9030,"ioen</w>":9031,"idair</w>":9032,"jaan</w>":9033,"jor":9034,"jaans</w>":9035,"kò":9036,"kó":9037,"k-</w>":9038,"k.</w>":9039,"klie":9040,"klij":9041,"kleven</w>":9042,"kster":9043,"klee":9044,"koar":9045,"klang</w>":9046,"kdicht</w>":9047,"kbra":9048,"kkende</w>":9049,"kbaar</w>":9050,"kgeliek</w>":9051,"kwinter":9052,"koare</w>":9053,"kwet</w>":9054,"kuiten</w>":9055,"kwö":9056,"kéér</w>":9057,"kkoppen</w>":9058,"kwieke</w>":9059,"kluuster</w>":9060,"kfabrikanten</w>":9061,"lâ":9062,"laar</w>":9063,"lij</w>":9064,"lle":9065,"lien</w>":9066,"loeg</w>":9067,"lèn</w>":9068,"londen</w>":9069,"léven</w>":9070,"ltoon</w>":9071,"mô":9072,"mo</w>":9073,"mst</w>":9074,"maan</w>":9075,"moor</w>":9076,"mke</w>":9077,"mig</w>":9078,"mhaid</w>":9079,"mkes</w>":9080,"male</w>":9081,"mug</w>":9082,"mbonen</w>":9083,"m-aan</w>":9084,"míjn</w>":9085,"mtabak</w>":9086,"ná":9087,"né":9088,"ní":9089,"ngen</w>":9090,"nop</w>":9091,"nden</w>":9092,"neen</w>":9093,"nun":9094,"nul</w>":9095,"nust</w>":9096,"noord</w>":9097,"nsche</w>":9098,"nstied</w>":9099,"nstru":9100,"nanno</w>":9101,"oy":9102,"oâ":9103,"oo</w>":9104,"oer":9105,"oken</w>":9106,"ozi":9107,"odeur</w>":9108,"ott":9109,"october</w>":9110,"pt":9111,"pw":9112,"py":9113,"pik</w>":9114,"p'n</w>":9115,"plie":9116,"pal</w>":9117,"pien":9118,"psta":9119,"pff":9120,"peren</w>":9121,"pon</w>":9122,"pzin":9123,"pkou":9124,"preekt</w>":9125,"pruit</w>":9126,"palen</w>":9127,"pimpel</w>":9128,"pgezeur</w>":9129,"pillen</w>":9130,"pisch</w>":9131,"ptocht</w>":9132,"poppo</w>":9133,"pzn</w>":9134,"ry</w>":9135,"rik</w>":9136,"rien</w>":9137,"rtje</w>":9138,"raal</w>":9139,"rsp":9140,"rveur</w>":9141,"rooit</w>":9142,"rok</w>":9143,"romme":9144,"rgerd</w>":9145,"r.c</w>":9146,"só":9147,"sh</w>":9148,"ser</w>":9149,"swe":9150,"sop</w>":9151,"som</w>":9152,"sor":9153,"sas</w>":9154,"send</w>":9155,"skr":9156,"ska":9157,"slijk</w>":9158,"smaal</w>":9159,"smoa":9160,"sja":9161,"sul</w>":9162,"sro":9163,"swoa":9164,"skind</w>":9165,"son</w>":9166,"swar":9167,"sier":9168,"sse":9169,"sine":9170,"sent</w>":9171,"smaakt</w>":9172,"szin":9173,"srecht</w>":9174,"sstem</w>":9175,"smoakt</w>":9176,"selt</w>":9177,"swaô":9178,"sint</w>":9179,"smaakte</w>":9180,"smoak</w>":9181,"swien</w>":9182,"shi":9183,"smuik</w>":9184,"svak</w>":9185,"svloer</w>":9186,"swoning</w>":9187,"skruud</w>":9188,"tò":9189,"t-</w>":9190,"the":9191,"tha":9192,"taan":9193,"tree":9194,"tais</w>":9195,"turen</w>":9196,"tju":9197,"ties</w>":9198,"tomen</w>":9199,"taauw</w>":9200,"twit</w>":9201,"tuig</w>":9202,"tkamp</w>":9203,"tters</w>":9204,"thoes":9205,"tsche</w>":9206,"tjou":9207,"tgat</w>":9208,"tstappen</w>":9209,"tvrijer</w>":9210,"tteg</w>":9211,"tmiddel</w>":9212,"twai</w>":9213,"tbont</w>":9214,"tked</w>":9215,"u.</w>":9216,"uwa":9217,"uis</w>":9218,"uul":9219,"uzelf</w>":9220,"ussie</w>":9221,"uat":9222,"vé":9223,"vs</w>":9224,"v'n</w>":9225,"vur":9226,"vil":9227,"vloa":9228,"vlai":9229,"véé":9230,"vies</w>":9231,"vôl</w>":9232,"vloot</w>":9233,"vlaag</w>":9234,"vuur":9235,"vierde</w>":9236,"vluiken</w>":9237,"vvert</w>":9238,"vuurtje</w>":9239,"wè":9240,"wì":9241,"w.</w>":9242,"win</w>":9243,"wom</w>":9244,"wur":9245,"wôr</w>":9246,"wrie":9247,"woon</w>":9248,"waang</w>":9249,"wôllt</w>":9250,"wôlt</w>":9251,"w'ons</w>":9252,"xtan":9253,"xemp":9254,"za</w>":9255,"zwe":9256,"zaar":9257,"zzo</w>":9258,"zz'n</w>":9259,"zoet</w>":9260,"zuit":9261,"zwai":9262,"zwaôr</w>":9263,"zwegen</w>":9264,"zwoe":9265,"zèl</w>":9266,"zwien":9267,"zweeg</w>":9268,"zíj</w>":9269,"zwaaiende</w>":9270,"zaaltje</w>":9271,"zíjn</w>":9272,"zzeln</w>":9273,"z-bitter</w>":9274,"àl</w>":9275,"àine</w>":9276,"áin</w>":9277,"âr</w>":9278,"ânst</w>":9279,"èigen</w>":9280,"ènde</w>":9281,"ée</w>":9282,"éten</w>":9283,"êl</w>":9284,"ëen</w>":9285,"ìn</w>":9286,"ïghaid</w>":9287,"òf</w>":9288,"ônen</w>":9289,"ôggen</w>":9290,"ôffen</w>":9291,"ödder</w>":9292,"aad</w>":9293,"aaien</w>":9294,"aacht</w>":9295,"aale</w>":9296,"aapje</w>":9297,"ert":9298,"eroa":9299,"erop":9300,"ering</w>":9301,"ernaar</w>":9302,"erna</w>":9303,"erten":9304,"erboven</w>":9305,"erlangs</w>":9306,"erschap</w>":9307,"ernaast</w>":9308,"eree</w>":9309,"ervaren</w>":9310,"eropuit</w>":9311,"ervoer</w>":9312,"eromheen</w>":9313,"ertegenin</w>":9314,"erefluiten</w>":9315,"hede</w>":9316,"hete</w>":9317,"heten</w>":9318,"he'k</w>":9319,"hese</w>":9320,"hemel":9321,"hevig</w>":9322,"heen-":9323,"heintje</w>":9324,"he-je</w>":9325,"daden</w>":9326,"dagr":9327,"daging</w>":9328,"daogen</w>":9329,"datt":9330,"dazze</w>":9331,"dago":9332,"dans</w>":9333,"daint</w>":9334,"dauwt</w>":9335,"daverde</w>":9336,"daoge</w>":9337,"dachteg</w>":9338,"oos":9339,"oost</w>":9340,"ooge</w>":9341,"iep</w>":9342,"ieur</w>":9343,"ieden</w>":9344,"ieten</w>":9345,"iege</w>":9346,"ieker":9347,"ieus</w>":9348,"iegel</w>":9349,"ieuwi":9350,"wak</w>":9351,"waik</w>":9352,"watte</w>":9353,"wagge":9354,"wastoe</w>":9355,"waspoe":9356,"wazz'n</w>":9357,"oakt</w>":9358,"oamen</w>":9359,"oallen</w>":9360,"oabels</w>":9361,"stik</w>":9362,"st'n</w>":9363,"stop</w>":9364,"stas</w>":9365,"stoor":9366,"stijn</w>":9367,"stun":9368,"staal":9369,"sttied</w>":9370,"staande</w>":9371,"stels</w>":9372,"stiene</w>":9373,"stklok</w>":9374,"stôm</w>":9375,"stkantoor</w>":9376,"stschoener</w>":9377,"stkas</w>":9378,"st-er</w>":9379,"stlain</w>":9380,"st.k</w>":9381,"stènde</w>":9382,"enn</w>":9383,"enz</w>":9384,"ente":9385,"entegen</w>":9386,"enlang</w>":9387,"enig":9388,"engel</w>":9389,"entie</w>":9390,"enslij":9391,"enslie":9392,"ennagels</w>":9393,"engeland</w>":9394,"cha":9395,"chan":9396,"char":9397,"chis":9398,"ch-bru":9399,"ge-":9400,"geu":9401,"gesch":9402,"geel":9403,"gela":9404,"geop":9405,"gever</w>":9406,"gekan":9407,"gehui":9408,"geboe":9409,"geul</w>":9410,"geve</w>":9411,"gekla":9412,"gedru":9413,"gekrie":9414,"gemor":9415,"gedur":9416,"gezette</w>":9417,"gesm":9418,"gezaa":9419,"gevrij</w>":9420,"gelachen</w>":9421,"gesno":9422,"gefs</w>":9423,"geproat</w>":9424,"gemoed</w>":9425,"gelief":9426,"geschri":9427,"gelach</w>":9428,"gefla":9429,"geborrel</w>":9430,"gedrukt</w>":9431,"gemiddel":9432,"getrouwde</w>":9433,"geloofd</w>":9434,"getroost</w>":9435,"geist</w>":9436,"geweren</w>":9437,"getui":9438,"gesprongen</w>":9439,"gefluu":9440,"gember</w>":9441,"gesie</w>":9442,"geut</w>":9443,"getogen</w>":9444,"gebouw":9445,"geknepen</w>":9446,"gestroopt</w>":9447,"gekroa":9448,"geknap</w>":9449,"gegroet</w>":9450,"geleefd</w>":9451,"gezonde</w>":9452,"gezorgd</w>":9453,"geveegd</w>":9454,"gewir":9455,"geschreeuw</w>":9456,"gedoken</w>":9457,"gelijk":9458,"gebouw</w>":9459,"gegund</w>":9460,"gestookt</w>":9461,"geheugen</w>":9462,"geheim":9463,"gevraagd</w>":9464,"gesodemieter</w>":9465,"ijs":9466,"ijo</w>":9467,"ijne":9468,"ijzen</w>":9469,"ijweg</w>":9470,"ijkst</w>":9471,"ijrde</w>":9472,"ijrd</w>":9473,"ijselijk</w>":9474,"oelen</w>":9475,"oeter":9476,"oets":9477,"anker":9478,"angeven</w>":9479,"anti":9480,"annoa</w>":9481,"anko</w>":9482,"andin":9483,"anpakken</w>":9484,"anheurd</w>":9485,"anigste</w>":9486,"anjo</w>":9487,"anspor":9488,"ont</w>":9489,"onde</w>":9490,"ontje</w>":9491,"onsp":9492,"ontied</w>":9493,"onwil":9494,"onvol":9495,"ononder":9496,"onkun":9497,"onmid":9498,"onrecht</w>":9499,"onschuld</w>":9500,"ongedaan</w>":9501,"onrust</w>":9502,"ongerust</w>":9503,"ontevre":9504,"on-ver":9505,"onvoldoende</w>":9506,"onweers":9507,"ongelegen</w>":9508,"ondank</w>":9509,"oneerlijke</w>":9510,"ontuug</w>":9511,"onkruid</w>":9512,"onkerde</w>":9513,"ongelukken</w>":9514,"onwennig</w>":9515,"ongenadig</w>":9516,"onguur</w>":9517,"wes</w>":9518,"web</w>":9519,"wele":9520,"wever</w>":9521,"wester</w>":9522,"wezig</w>":9523,"wedden":9524,"wekter</w>":9525,"wekkers</w>":9526,"wedstrijd</w>":9527,"wetsche</w>":9528,"in-":9529,"ino</w>":9530,"inst</w>":9531,"inve":9532,"inzijn</w>":9533,"inkomen</w>":9534,"ineen":9535,"ingaan</w>":9536,"inwen":9537,"indenken</w>":9538,"innig</w>":9539,"inkieken</w>":9540,"inpad</w>":9541,"ingekomen</w>":9542,"insin":9543,"infer":9544,"innander</w>":9545,"indert</w>":9546,"inspanning</w>":9547,"invullen</w>":9548,"lef</w>":9549,"leen</w>":9550,"leken</w>":9551,"lets</w>":9552,"ledig</w>":9553,"legoa</w>":9554,"lemoal</w>":9555,"less":9556,"levent</w>":9557,"lemmer":9558,"letst</w>":9559,"ledij":9560,"legende</w>":9561,"lewaai</w>":9562,"leite</w>":9563,"legden</w>":9564,"leving</w>":9565,"leboog</w>":9566,"lekkere</w>":9567,"leerden</w>":9568,"levertr":9569,"letters</w>":9570,"oud":9571,"ougen</w>":9572,"oudt</w>":9573,"ouds</w>":9574,"oudje</w>":9575,"ouderen</w>":9576,"ouwelijk</w>":9577,"mes":9578,"meur</w>":9579,"meier</w>":9580,"melen</w>":9581,"mept</w>":9582,"meloa":9583,"messen</w>":9584,"meide</w>":9585,"metjes</w>":9586,"meld</w>":9587,"mekander</w>":9588,"mesien</w>":9589,"meinen</w>":9590,"meters</w>":9591,"meschien</w>":9592,"metter":9593,"meziek</w>":9594,"melaats</w>":9595,"mezzo</w>":9596,"meert":9597,"meindert</w>":9598,"zem</w>":9599,"zeê</w>":9600,"zeis</w>":9601,"zele</w>":9602,"zetken</w>":9603,"zeik":9604,"zesde</w>":9605,"zeist</w>":9606,"zesse</w>":9607,"zevör":9608,"zebul</w>":9609,"bek":9610,"bez":9611,"beer</w>":9612,"beer":9613,"bedaar</w>":9614,"bedoar</w>":9615,"besl":9616,"betre":9617,"behui":9618,"besten</w>":9619,"bescha":9620,"bezag</w>":9621,"beti":9622,"bevrij":9623,"beurde</w>":9624,"bevel</w>":9625,"bewaren</w>":9626,"bestand</w>":9627,"bebloe":9628,"bedel":9629,"behouden</w>":9630,"bekijkt</w>":9631,"bekikt</w>":9632,"besli":9633,"beslag</w>":9634,"bepraten</w>":9635,"begroot</w>":9636,"beproaten</w>":9637,"belde</w>":9638,"bedenk</w>":9639,"bekwoa":9640,"behelpen</w>":9641,"bevaalt</w>":9642,"begroe":9643,"bevlie":9644,"behen":9645,"besloot</w>":9646,"bedaô":9647,"bezwaar</w>":9648,"bekers</w>":9649,"beviel</w>":9650,"bevangen</w>":9651,"bewies</w>":9652,"belegde</w>":9653,"bestuurde</w>":9654,"bewijs</w>":9655,"beweerd</w>":9656,"bebloed</w>":9657,"bezoeken</w>":9658,"bejaar":9659,"bedrukt</w>":9660,"bemiddel":9661,"bejacht</w>":9662,"bezuiken</w>":9663,"besteld</w>":9664,"bekeer":9665,"beluistert</w>":9666,"beukt</w>":9667,"bevroren</w>":9668,"bestelde</w>":9669,"behandelen</w>":9670,"bevangt</w>":9671,"beugel</w>":9672,"bezopen</w>":9673,"besterf</w>":9674,"beschot</w>":9675,"bewust</w>":9676,"beholden</w>":9677,"bedraigen</w>":9678,"bepleit</w>":9679,"nos</w>":9680,"noú</w>":9681,"noten</w>":9682,"nota</w>":9683,"aler":9684,"alje</w>":9685,"almen</w>":9686,"alstu":9687,"alvast</w>":9688,"alfa":9689,"allo</w>":9690,"algemeen</w>":9691,"vern</w>":9692,"vernie":9693,"verder":9694,"verma":9695,"verdi":9696,"verga":9697,"verkwa":9698,"verig</w>":9699,"verzen</w>":9700,"verpa":9701,"verren</w>":9702,"verster":9703,"vermoa":9704,"verlo":9705,"verdien</w>":9706,"veronder":9707,"verkun":9708,"verten":9709,"vergrij":9710,"verstil":9711,"vergeven</w>":9712,"verkla":9713,"verdie":9714,"verwaa":9715,"verbij":9716,"veront":9717,"verdui":9718,"verlaten</w>":9719,"verstond</w>":9720,"verstra":9721,"verslag</w>":9722,"vermor":9723,"vergroot</w>":9724,"verstie":9725,"verzetten</w>":9726,"versm":9727,"verwit</w>":9728,"verwacht</w>":9729,"vertrouw":9730,"verklaar</w>":9731,"verloop</w>":9732,"verstun</w>":9733,"verwaô":9734,"verwiet</w>":9735,"verfle":9736,"verslagen</w>":9737,"vervangen</w>":9738,"verkoren</w>":9739,"verblied</w>":9740,"vergan":9741,"verspelen</w>":9742,"verzwijgen</w>":9743,"vergrepen</w>":9744,"verdain":9745,"verhoalen</w>":9746,"verneem</w>":9747,"verzwiegen</w>":9748,"verkist</w>":9749,"verneder":9750,"vergaten</w>":9751,"verricht</w>":9752,"vergleden</w>":9753,"verplicht</w>":9754,"verstoven</w>":9755,"vergangen</w>":9756,"verwege</w>":9757,"verpest</w>":9758,"verwijlen</w>":9759,"verbonnen</w>":9760,"verslijtbaar</w>":9761,"verslietboar</w>":9762,"verbal":9763,"verbeten</w>":9764,"verwilder":9765,"verblaa":9766,"verwaaid</w>":9767,"versleten</w>":9768,"verroaden</w>":9769,"verjoagen</w>":9770,"vernement</w>":9771,"verzoen":9772,"verpronkt</w>":9773,"verjagen</w>":9774,"vertonen</w>":9775,"verheugt</w>":9776,"verhaôl</w>":9777,"verspert</w>":9778,"verjongd</w>":9779,"verbannen</w>":9780,"verhuren</w>":9781,"rea":9782,"reg":9783,"rel":9784,"rest</w>":9785,"rete":9786,"reden":9787,"rekken</w>":9788,"rekie":9789,"regeer":9790,"repe":9791,"rels</w>":9792,"remde</w>":9793,"reerde</w>":9794,"rederij</w>":9795,"redde":9796,"remedie</w>":9797,"replu</w>":9798,"reg-":9799,"reize</w>":9800,"rebos</w>":9801,"redend</w>":9802,"report</w>":9803,"reer'n</w>":9804,"respec":9805,"redding</w>":9806,"hao":9807,"hais</w>":9808,"hakt</w>":9809,"haver</w>":9810,"habu":9811,"havel":9812,"hazewinkel</w>":9813,"had'n</w>":9814,"having</w>":9815,"haolt</w>":9816,"haode</w>":9817,"hauen</w>":9818,"hampel</w>":9819,"haôld</w>":9820,"haijo</w>":9821,"haino</w>":9822,"deê":9823,"deê</w>":9824,"deit</w>":9825,"demie</w>":9826,"dedde</w>":9827,"dekte</w>":9828,"debu":9829,"deweer":9830,"destie":9831,"delief":9832,"deser":9833,"deerden</w>":9834,"degenen</w>":9835,"debakkes</w>":9836,"dempt</w>":9837,"delandschap</w>":9838,"dedans</w>":9839,"deinst</w>":9840,"omie</w>":9841,"ommen</w>":9842,"ompt</w>":9843,"omth":9844,"omkeek</w>":9845,"omgoan</w>":9846,"omkijkt</w>":9847,"omkikt</w>":9848,"ommel":9849,"omko</w>":9850,"omdeel</w>":9851,"omtrek</w>":9852,"omdraaien</w>":9853,"omfer":9854,"omdele</w>":9855,"omstandigheden</w>":9856,"omgewoe":9857,"top":9858,"toer</w>":9859,"toenen</w>":9860,"schal</w>":9861,"scheren</w>":9862,"schok</w>":9863,"schaf":9864,"schroe":9865,"schoppen</w>":9866,"schonk</w>":9867,"schorre</w>":9868,"nel</w>":9869,"neit</w>":9870,"neder</w>":9871,"neert</w>":9872,"nette</w>":9873,"nesten</w>":9874,"nevel":9875,"nemens</w>":9876,"neud</w>":9877,"negers</w>":9878,"newiel</w>":9879,"nekouk</w>":9880,"neon-ver":9881,"elken</w>":9882,"elfde</w>":9883,"elijf</w>":9884,"ellèn</w>":9885,"elleboog</w>":9886,"nap</w>":9887,"natu":9888,"nagaan</w>":9889,"nais":9890,"nappen</w>":9891,"nadenken</w>":9892,"naderen</w>":9893,"nagras</w>":9894,"nammen</w>":9895,"nadert</w>":9896,"namelijk</w>":9897,"nation":9898,"laf":9899,"lag":9900,"lat</w>":9901,"lak</w>":9902,"lake</w>":9903,"lager</w>":9904,"lasten</w>":9905,"laigen</w>":9906,"laten":9907,"lauwe</w>":9908,"lastig</w>":9909,"lasteren</w>":9910,"lakens</w>":9911,"lammer":9912,"lawaait</w>":9913,"ladder</w>":9914,"laude</w>":9915,"lauwer":9916,"laoten</w>":9917,"doden</w>":9918,"dochten</w>":9919,"dokken</w>":9920,"doene</w>":9921,"dolk</w>":9922,"dolle</w>":9923,"doller</w>":9924,"docu":9925,"aarf</w>":9926,"aark</w>":9927,"aarven</w>":9928,"aarmen":9929,"aarster</w>":9930,"aarven":9931,"aarbei":9932,"vest</w>":9933,"veel":9934,"vecht":9935,"vezi":9936,"veeren</w>":9937,"vekoa":9938,"veeg":9939,"vettig</w>":9940,"uis":9941,"uilen</w>":9942,"uitru":9943,"uitel":9944,"zok":9945,"zogt</w>":9946,"zokse</w>":9947,"zometeen</w>":9948,"zogenaamd</w>":9949,"vroom</w>":9950,"vrome</w>":9951,"zaggen</w>":9952,"zaol</w>":9953,"zakte</w>":9954,"zakelijk</w>":9955,"zagse</w>":9956,"zaôm</w>":9957,"zakelijkheid</w>":9958,"urden</w>":9959,"urkte</w>":9960,"urprui":9961,"urprijs</w>":9962,"wiste</w>":9963,"witten</w>":9964,"wissen</w>":9965,"witt":9966,"wikker</w>":9967,"wippen</w>":9968,"wizzen</w>":9969,"witte":9970,"wichien</w>":9971,"origen</w>":9972,"gruit</w>":9973,"gril":9974,"grim":9975,"grens</w>":9976,"gróó":9977,"graauwen</w>":9978,"grout":9979,"derd</w>":9980,"derom</w>":9981,"derks</w>":9982,"derpakken</w>":9983,"derhalve</w>":9984,"aanj</w>":9985,"aanje</w>":9986,"aanger":9987,"aankomen</w>":9988,"aangeven</w>":9989,"aangaait</w>":9990,"aankieken</w>":9991,"aanstel":9992,"aanrecht</w>":9993,"aangedaan</w>":9994,"aannemen</w>":9995,"aanhoren</w>":9996,"aanpakken</w>":9997,"aantje":9998,"aanpak</w>":9999,"aanboden</w>":10000,"aanbod</w>":10001,"aantrof</w>":10002,"aanzeg":10003,"aangriepen</w>":10004,"aangevlogen</w>":10005,"aangeboden</w>":10006,"aanwezig</w>":10007,"opze":10008,"opre":10009,"opzi":10010,"oplu":10011,"opvo":10012,"opvre":10013,"optrekt</w>":10014,"opdoan</w>":10015,"opstond</w>":10016,"oprecht</w>":10017,"opnemen</w>":10018,"opbrengen</w>":10019,"optrokken</w>":10020,"opstun</w>":10021,"oproept</w>":10022,"opspringt</w>":10023,"opsteken</w>":10024,"opzicht":10025,"opschee":10026,"oplichten</w>":10027,"opwind":10028,"opgericht</w>":10029,"opscheppen</w>":10030,"opklinken</w>":10031,"optocht</w>":10032,"opjes":10033,"oplos":10034,"opgeleid</w>":10035,"oplichtte</w>":10036,"opschrift</w>":10037,"oprapen</w>":10038,"opscharrelen</w>":10039,"opwekkers</w>":10040,"ruw</w>":10041,"ruge</w>":10042,"ruggen</w>":10043,"ruzie":10044,"rund</w>":10045,"rulle</w>":10046,"rustte</w>":10047,"runtje</w>":10048,"rusteloze</w>":10049,"rustiger</w>":10050,"moedige</w>":10051,"olie</w>":10052,"oltje</w>":10053,"olman</w>":10054,"olste</w>":10055,"oller":10056,"oldste</w>":10057,"oloods</w>":10058,"ollers</w>":10059,"chtte</w>":10060,"chtst</w>":10061,"chtende</w>":10062,"chtern</w>":10063,"cht-weg</w>":10064,"oorn</w>":10065,"oorte</w>":10066,"oorts</w>":10067,"oordeel</w>":10068,"oorzoak</w>":10069,"komze</w>":10070,"kompt</w>":10071,"komsten</w>":10072,"komstig</w>":10073,"komdij":10074,"kommetje</w>":10075,"komenheid</w>":10076,"bon</w>":10077,"boter":10078,"bossen</w>":10079,"bobbe":10080,"botst</w>":10081,"bosken</w>":10082,"bobbelt</w>":10083,"bodschop</w>":10084,"teu":10085,"tee</w>":10086,"tein</w>":10087,"teder</w>":10088,"tetje</w>":10089,"teste":10090,"teuren</w>":10091,"temde</w>":10092,"teug</w>":10093,"tetter":10094,"tewet</w>":10095,"tezucht</w>":10096,"teurs</w>":10097,"teiten</w>":10098,"teennagels</w>":10099,"techis":10100,"ragen</w>":10101,"raden</w>":10102,"ragt</w>":10103,"razen</w>":10104,"rauw</w>":10105,"raôr</w>":10106,"rais":10107,"ragde</w>":10108,"raôm</w>":10109,"raglans</w>":10110,"maô</w>":10111,"maol":10112,"master</w>":10113,"makker</w>":10114,"magse</w>":10115,"makkers</w>":10116,"machine</w>":10117,"maôlde</w>":10118,"mastschoener</w>":10119,"madelief":10120,"lid":10121,"lis":10122,"liber":10123,"lissen</w>":10124,"lighaid</w>":10125,"ligheid</w>":10126,"liteit</w>":10127,"libellen</w>":10128,"zitje</w>":10129,"zichten</w>":10130,"ziger</w>":10131,"zighaid</w>":10132,"zigheid</w>":10133,"digs</w>":10134,"digst</w>":10135,"digend</w>":10136,"disc":10137,"disse</w>":10138,"direkt</w>":10139,"distels</w>":10140,"liek":10141,"liegen</w>":10142,"lieten</w>":10143,"liester":10144,"lieders</w>":10145,"lienoa</w>":10146,"lieverd</w>":10147,"gab</w>":10148,"gage</w>":10149,"gaôr</w>":10150,"gauwer</w>":10151,"gaike</w>":10152,"gaskr":10153,"kee</w>":10154,"keten</w>":10155,"kever</w>":10156,"keeren</w>":10157,"kedel":10158,"kes-":10159,"keizer</w>":10160,"nikte</w>":10161,"nissen</w>":10162,"sple":10163,"spui":10164,"spijn</w>":10165,"spier":10166,"spuu":10167,"sparen</w>":10168,"spant</w>":10169,"spoart</w>":10170,"spierde</w>":10171,"spleet</w>":10172,"spaart</w>":10173,"broo":10174,"brons</w>":10175,"brok</w>":10176,"braande</w>":10177,"bringt</w>":10178,"brink</w>":10179,"brijven</w>":10180,"brôggen</w>":10181,"jochie</w>":10182,"une</w>":10183,"uns</w>":10184,"dren":10185,"dron":10186,"drui":10187,"dringen</w>":10188,"drong</w>":10189,"drijf</w>":10190,"dropjes":10191,"lijnen</w>":10192,"lijster</w>":10193,"lijders</w>":10194,"lijntje</w>":10195,"lijdenis</w>":10196,"moie</w>":10197,"motje</w>":10198,"mochte</w>":10199,"model</w>":10200,"modder":10201,"mores</w>":10202,"lankje</w>":10203,"landjes</w>":10204,"luis</w>":10205,"ludt</w>":10206,"lujong</w>":10207,"lusten</w>":10208,"luwerk</w>":10209,"luurd</w>":10210,"lugst</w>":10211,"lutke</w>":10212,"lupko</w>":10213,"lutjen</w>":10214,"beren":10215,"bergen</w>":10216,"berts</w>":10217,"berek</w>":10218,"beroep</w>":10219,"beroaden</w>":10220,"bersdeuren</w>":10221,"hande</w>":10222,"hangende</w>":10223,"hangend</w>":10224,"hut</w>":10225,"huust</w>":10226,"huld</w>":10227,"huvert</w>":10228,"huult</w>":10229,"humane</w>":10230,"huurprijs</w>":10231,"iens</w>":10232,"ientied</w>":10233,"ienploats</w>":10234,"iengoa":10235,"ienbak</w>":10236,"ienhoalen</w>":10237,"iensoa":10238,"hogers</w>":10239,"hobbelt</w>":10240,"hozevör":10241,"genie</w>":10242,"genden</w>":10243,"geniep":10244,"genieten</w>":10245,"meng</w>":10246,"mengen</w>":10247,"mengoa</w>":10248,"menner":10249,"menai":10250,"menno</w>":10251,"menee</w>":10252,"menijren</w>":10253,"jonger</w>":10254,"jongeda":10255,"jongers</w>":10256,"jong-":10257,"zuit</w>":10258,"zuien</w>":10259,"zuden</w>":10260,"zuch</w>":10261,"zukkend</w>":10262,"zuneg</w>":10263,"zuurprui":10264,"werij</w>":10265,"werend</w>":10266,"werpen</w>":10267,"werkten</w>":10268,"krö":10269,"kraag</w>":10270,"kroag</w>":10271,"krot</w>":10272,"kringe":10273,"kromme</w>":10274,"vrouge</w>":10275,"armou":10276,"arko</w>":10277,"arrega":10278,"ar-tik-":10279,"kok</w>":10280,"kokend</w>":10281,"traan</w>":10282,"traande</w>":10283,"troon</w>":10284,"troepen</w>":10285,"trijntje</w>":10286,"transpor":10287,"trommen</w>":10288,"kwak</w>":10289,"kwade</w>":10290,"kwader</w>":10291,"kwakt</w>":10292,"kwams</w>":10293,"kwajongens</w>":10294,"kwaliteit</w>":10295,"vatten</w>":10296,"vaim":10297,"vailen</w>":10298,"worm</w>":10299,"wortels</w>":10300,"alleman</w>":10301,"allemaol</w>":10302,"klô":10303,"klaan</w>":10304,"kloar":10305,"klonken</w>":10306,"klaagd</w>":10307,"kloug</w>":10308,"klopp":10309,"kloos":10310,"duor":10311,"duwen</w>":10312,"duurd</w>":10313,"duust</w>":10314,"duzzen</w>":10315,"duwt</w>":10316,"duld":10317,"duozi":10318,"d'eerste</w>":10319,"d'avond":10320,"d'oavend":10321,"d'eeuwigheid</w>":10322,"d'oorlog</w>":10323,"d'eene</w>":10324,"d'l'k</w>":10325,"d'iensoa":10326,"kern</w>":10327,"kerst</w>":10328,"kerft</w>":10329,"kersen</w>":10330,"kersen":10331,"kerklaô":10332,"kerboor</w>":10333,"kerklaan</w>":10334,"trus</w>":10335,"eersten</w>":10336,"eerlieks</w>":10337,"eerlik</w>":10338,"iloorn</w>":10339,"loods</w>":10340,"waarde</w>":10341,"waarvan</w>":10342,"waaraan</w>":10343,"waarmen</w>":10344,"waarbij</w>":10345,"waarkte</w>":10346,"waardeloos</w>":10347,"hoesten</w>":10348,"hoelang</w>":10349,"hoepel</w>":10350,"hoevelen</w>":10351,"hoefden</w>":10352,"hoe-j":10353,"aal'n</w>":10354,"aalte":10355,"aalmoar</w>":10356,"aalweg</w>":10357,"aalms</w>":10358,"aalles</w>":10359,"aalberts</w>":10360,"stei":10361,"stek</w>":10362,"steden</w>":10363,"stevel</w>":10364,"steboven</w>":10365,"steurd</w>":10366,"stemd</w>":10367,"steeltje</w>":10368,"stement</w>":10369,"stelein</w>":10370,"mankeert</w>":10371,"mern</w>":10372,"merkten</w>":10373,"mergekl":10374,"mercie":10375,"merkingen</w>":10376,"meraden</w>":10377,"merce":10378,"weekt</w>":10379,"weeke</w>":10380,"weegs</w>":10381,"weekje</w>":10382,"achttien":10383,"chelen</w>":10384,"kab":10385,"katje</w>":10386,"kabin":10387,"katoe":10388,"kammer":10389,"kavond</w>":10390,"kaizer</w>":10391,"kastjes</w>":10392,"kaore</w>":10393,"kastlain</w>":10394,"katrijntje</w>":10395,"kastelein</w>":10396,"kameraden</w>":10397,"kenze</w>":10398,"kentje</w>":10399,"kennig</w>":10400,"kengeertruud</w>":10401,"kenstoe</w>":10402,"kenuten</w>":10403,"kennissen</w>":10404,"pacht</w>":10405,"padei</w>":10406,"paste</w>":10407,"pats</w>":10408,"paster":10409,"paul</w>":10410,"pape":10411,"padje</w>":10412,"pakke":10413,"pakten</w>":10414,"paci":10415,"pastor":10416,"patja":10417,"papieren</w>":10418,"pabbeg":10419,"pareplu</w>":10420,"winsten</w>":10421,"winschoot</w>":10422,"windri":10423,"winschoten</w>":10424,"wanhop":10425,"hebzucht</w>":10426,"hoos</w>":10427,"hoogen</w>":10428,"hoopen</w>":10429,"hoopt</w>":10430,"hoope</w>":10431,"hoogrode</w>":10432,"hoogroode</w>":10433,"dende</w>":10434,"denten</w>":10435,"denwind</w>":10436,"denmiddag</w>":10437,"dent-":10438,"denkse</w>":10439,"denwiss":10440,"dengekla":10441,"tije</w>":10442,"tijs</w>":10443,"tijken</w>":10444,"tijren</w>":10445,"tijns</w>":10446,"terden</w>":10447,"terke</w>":10448,"terboer</w>":10449,"tereg</w>":10450,"terstas</w>":10451,"terneder</w>":10452,"prie":10453,"proek</w>":10454,"prins</w>":10455,"prille</w>":10456,"prikte</w>":10457,"prijzen</w>":10458,"praanj</w>":10459,"haartje</w>":10460,"haarfijn</w>":10461,"haarbaargen</w>":10462,"milie":10463,"mits</w>":10464,"mise</w>":10465,"miss":10466,"mién</w>":10467,"mistroo":10468,"mispunt</w>":10469,"slon":10470,"slopen</w>":10471,"slöt</w>":10472,"doof</w>":10473,"doos</w>":10474,"dooien</w>":10475,"dooft</w>":10476,"dooden":10477,"doodar":10478,"doofstom":10479,"gelden</w>":10480,"geldoor":10481,"geldver":10482,"sterft</w>":10483,"steravond</w>":10484,"sterren":10485,"steroavend</w>":10486,"sterfte</w>":10487,"sterswoning</w>":10488,"sterrebos</w>":10489,"wilg</w>":10490,"wilhel":10491,"wilko</w>":10492,"wilde-":10493,"ula</w>":10494,"ulie</w>":10495,"ulende</w>":10496,"bloa":10497,"blom</w>":10498,"blaast</w>":10499,"blonken</w>":10500,"blonde</w>":10501,"leegde</w>":10502,"leedaan":10503,"leeuwer":10504,"venen</w>":10505,"venien</w>":10506,"venijn</w>":10507,"veningen</w>":10508,"ventken</w>":10509,"gern</w>":10510,"gerde</w>":10511,"gerij</w>":10512,"gerend</w>":10513,"gerig</w>":10514,"gereer</w>":10515,"gerai":10516,"gerommel</w>":10517,"gernis</w>":10518,"gerukt</w>":10519,"gerappel</w>":10520,"geroy":10521,"geroakt</w>":10522,"goeie":10523,"goeden</w>":10524,"goeds</w>":10525,"goedenmiddag</w>":10526,"staf</w>":10527,"stads</w>":10528,"staon</w>":10529,"stakker</w>":10530,"stadje</w>":10531,"stamp":10532,"stapel":10533,"stammen</w>":10534,"stambonen</w>":10535,"stailoorn</w>":10536,"stut</w>":10537,"stus</w>":10538,"studie</w>":10539,"stuurt</w>":10540,"stugge</w>":10541,"stuum</w>":10542,"stukkend</w>":10543,"studenten</w>":10544,"wieg</w>":10545,"wieders</w>":10546,"wieske</w>":10547,"wiepke</w>":10548,"wiebrand</w>":10549,"wiebe</w>":10550,"wiedwoa":10551,"wiedeweer":10552,"schel</w>":10553,"schei</w>":10554,"scheen</w>":10555,"schenen</w>":10556,"scheert</w>":10557,"schept</w>":10558,"scheuren</w>":10559,"scheve</w>":10560,"scheurd</w>":10561,"scheelde</w>":10562,"schettert</w>":10563,"scheveningen</w>":10564,"kinnig</w>":10565,"overhebben</w>":10566,"overbrengen</w>":10567,"overzied</w>":10568,"overlast</w>":10569,"overwinnen</w>":10570,"overvlogen</w>":10571,"overgehouden</w>":10572,"overall</w>":10573,"overredend</w>":10574,"strin":10575,"stried</w>":10576,"strooit</w>":10577,"strok</w>":10578,"stronk</w>":10579,"stralen</w>":10580,"strötte</w>":10581,"strompel":10582,"stroloods</w>":10583,"tuten</w>":10584,"tuurd</w>":10585,"tubes</w>":10586,"tuinpad</w>":10587,"mous</w>":10588,"mouks</w>":10589,"moat</w>":10590,"moag</w>":10591,"moaks</w>":10592,"moakte</w>":10593,"moakse</w>":10594,"ffeld</w>":10595,"ffies</w>":10596,"baô":10597,"bats</w>":10598,"batten</w>":10599,"bazin</w>":10600,"batsen</w>":10601,"badde":10602,"baksch":10603,"th-s":10604,"thuis":10605,"zellig</w>":10606,"harms</w>":10607,"klep</w>":10608,"kleeft</w>":10609,"klemt</w>":10610,"kleppe</w>":10611,"kleuren":10612,"kijker</w>":10613,"kijkavond</w>":10614,"vooraan</w>":10615,"voorkomt</w>":10616,"voordeur</w>":10617,"voorgoed</w>":10618,"vooruit":10619,"voorspel":10620,"voorgenomen</w>":10621,"voorzicht":10622,"voornaam</w>":10623,"voorbeeld</w>":10624,"voorgevallen</w>":10625,"voorstelt</w>":10626,"slag":10627,"slak</w>":10628,"slaô</w>":10629,"slacht</w>":10630,"slaven</w>":10631,"slaven":10632,"slager</w>":10633,"slasten</w>":10634,"slachtige</w>":10635,"slapper</w>":10636,"kanst</w>":10637,"kanste</w>":10638,"trek":10639,"tree</w>":10640,"tref</w>":10641,"tred</w>":10642,"treg</w>":10643,"trein</w>":10644,"treden</w>":10645,"oars</w>":10646,"oarde</w>":10647,"oarend</w>":10648,"oarste</w>":10649,"oardeghaid</w>":10650,"maaien</w>":10651,"loz":10652,"log</w>":10653,"loo</w>":10654,"loge":10655,"loeren</w>":10656,"bene</w>":10657,"benn</w>":10658,"beno</w>":10659,"bende</w>":10660,"benaauw":10661,"benau":10662,"bengels</w>":10663,"benn'n</w>":10664,"benepen</w>":10665,"vos</w>":10666,"voert</w>":10667,"vochten</w>":10668,"vodden</w>":10669,"voerder</w>":10670,"votum</w>":10671,"loave</w>":10672,"kelder</w>":10673,"keltje</w>":10674,"kelig</w>":10675,"begaan</w>":10676,"begoan</w>":10677,"laands":10678,"volop</w>":10679,"volgt</w>":10680,"volgde</w>":10681,"vollek</w>":10682,"volgehouden</w>":10683,"volgorde</w>":10684,"wijn":10685,"wijze</w>":10686,"wijden</w>":10687,"wijrd</w>":10688,"wijzende</w>":10689,"wogen</w>":10690,"wozzen</w>":10691,"wodde":10692,"pper":10693,"ppie</w>":10694,"pping</w>":10695,"ppige</w>":10696,"bouke</w>":10697,"bouter":10698,"bouwe</w>":10699,"bouwer</w>":10700,"bouwt</w>":10701,"boukie</w>":10702,"bouksken</w>":10703,"eensklaps</w>":10704,"eenkennig</w>":10705,"rieks</w>":10706,"riept</w>":10707,"riekste</w>":10708,"rieswaô":10709,"jao</w>":10710,"jakken</w>":10711,"jakjes</w>":10712,"jasse</w>":10713,"jakkes</w>":10714,"jama</w>":10715,"jachto":10716,"luider</w>":10717,"luidde</w>":10718,"luitjes</w>":10719,"luist'ren</w>":10720,"vandeur</w>":10721,"vandoor</w>":10722,"vanonder</w>":10723,"vanaf</w>":10724,"vanzelf</w>":10725,"vanwege</w>":10726,"vanouds</w>":10727,"afdoen</w>":10728,"aflopen</w>":10729,"afwachten</w>":10730,"afnemen</w>":10731,"afleren</w>":10732,"afsluit</w>":10733,"afenis</w>":10734,"immer</w>":10735,"imine":10736,"imolen</w>":10737,"laaiden</w>":10738,"laagde</w>":10739,"laagste</w>":10740,"onderste</w>":10741,"ondergoed</w>":10742,"ondertussen</w>":10743,"ondereind</w>":10744,"onderdak</w>":10745,"onderzoeken</w>":10746,"onderzuiken</w>":10747,"onderwegens</w>":10748,"onderzoeker</w>":10749,"ondersteboven</w>":10750,"domt</w>":10751,"domheid</w>":10752,"dommer</w>":10753,"domine</w>":10754,"dompel":10755,"dommenijren</w>":10756,"woord":10757,"woor-</w>":10758,"woordt</w>":10759,"woordje</w>":10760,"telde</w>":10761,"teltje</w>":10762,"telend</w>":10763,"telende</w>":10764,"huiten</w>":10765,"huist</w>":10766,"huifde</w>":10767,"huilerig</w>":10768,"huiltoon</w>":10769,"meegemaakt</w>":10770,"meegegeven</w>":10771,"meesterswoning</w>":10772,"zulf":10773,"zulfs</w>":10774,"boeg</w>":10775,"boete</w>":10776,"boedel</w>":10777,"boezer":10778,"boekhou":10779,"kieker</w>":10780,"kiekoa":10781,"kievie":10782,"kiespijn</w>":10783,"tandjes</w>":10784,"tandpa":10785,"tandengekla":10786,"oafaan</w>":10787,"oafke</w>":10788,"recked</w>":10789,"veurdat</w>":10790,"veurheufd</w>":10791,"veurzitter</w>":10792,"hout</w>":10793,"housten</w>":10794,"ttel</w>":10795,"hole</w>":10796,"hola</w>":10797,"holst</w>":10798,"holl'n</w>":10799,"hollands</w>":10800,"hollands":10801,"buu":10802,"bukt</w>":10803,"bunen</w>":10804,"buul</w>":10805,"buten":10806,"buiege</w>":10807,"rokt</w>":10808,"rotten</w>":10809,"romeinen</w>":10810,"dreigen</w>":10811,"dreun</w>":10812,"drempel</w>":10813,"dreumd</w>":10814,"dreunde</w>":10815,"doorzetten</w>":10816,"woaden</w>":10817,"woagen":10818,"ainkinnig</w>":10819,"douken</w>":10820,"doukje</w>":10821,"dounde</w>":10822,"doukskes</w>":10823,"douwes</w>":10824,"kunje</w>":10825,"schai</w>":10826,"boere":10827,"boerd</w>":10828,"boerschap</w>":10829,"boerricht":10830,"tende</w>":10831,"tenloof</w>":10832,"zoame</w>":10833,"zoak'":10834,"grijp</w>":10835,"lenen</w>":10836,"lentezucht</w>":10837,"tseren</w>":10838,"tsier":10839,"tsland</w>":10840,"tskheid</w>":10841,"nijjaôr</w>":10842,"warmen</w>":10843,"kreukt</w>":10844,"kreunde</w>":10845,"krekgeliek</w>":10846,"voegt</w>":10847,"voele</w>":10848,"voeste</w>":10849,"veln</w>":10850,"velde</w>":10851,"velden</w>":10852,"vellen</w>":10853,"velstank</w>":10854,"veldwacht":10855,"groen":10856,"koaïns</w>":10857,"koabouter":10858,"doal</w>":10859,"doaden</w>":10860,"doames</w>":10861,"jee</w>":10862,"jet</w>":10863,"jetten</w>":10864,"jekker</w>":10865,"jesses</w>":10866,"hels</w>":10867,"helm</w>":10868,"helster</w>":10869,"hello</w>":10870,"heller</w>":10871,"helften</w>":10872,"hemme</w>":10873,"hemmel":10874,"hemmelde</w>":10875,"hemmeld</w>":10876,"zieke</w>":10877,"ziezoo</w>":10878,"ziekte</w>":10879,"zielig</w>":10880,"gunder</w>":10881,"gunstig</w>":10882,"andern</w>":10883,"anderd</w>":10884,"anderdag</w>":10885,"andermans</w>":10886,"anderhalf</w>":10887,"anderdags":10888,"lair</w>":10889,"laipen</w>":10890,"laidje</w>":10891,"laiverd</w>":10892,"laifdes</w>":10893,"uiteen</w>":10894,"uitstaan</w>":10895,"uitloopt</w>":10896,"uitbomen</w>":10897,"uitleeft</w>":10898,"uitgesproken</w>":10899,"uitbun":10900,"uitdaging</w>":10901,"directe</w>":10902,"directie":10903,"directies</w>":10904,"directeuren</w>":10905,"stilstoan</w>":10906,"stiller</w>":10907,"gebed</w>":10908,"gebeurden</w>":10909,"kiks</w>":10910,"kikker":10911,"kirre":10912,"kippen":10913,"één":10914,"klagt</w>":10915,"klaier</w>":10916,"klare</w>":10917,"klasse</w>":10918,"tonge</w>":10919,"tongrie":10920,"tonko</w>":10921,"tonnis</w>":10922,"toneel":10923,"bonken</w>":10924,"bonner":10925,"bonno</w>":10926,"oetlopen</w>":10927,"oetzain</w>":10928,"oetstoan</w>":10929,"oetkieken</w>":10930,"oetproaten</w>":10931,"oetzetten</w>":10932,"oetzingen</w>":10933,"oetvalen</w>":10934,"oetlegd</w>":10935,"oetgeloaten</w>":10936,"oetblui":10937,"oetspierde</w>":10938,"midwinter</w>":10939,"middelen</w>":10940,"midzomer":10941,"middagr":10942,"aôl</w>":10943,"aôverij</w>":10944,"aôkertje</w>":10945,"dieken</w>":10946,"diepte</w>":10947,"diepzinnig</w>":10948,"prak":10949,"praimen</w>":10950,"kneust</w>":10951,"kneus":10952,"knegt":10953,"ôller</w>":10954,"geertje</w>":10955,"dokterstas</w>":10956,"juk</w>":10957,"judas</w>":10958,"tieren</w>":10959,"tiddo</w>":10960,"tish</w>":10961,"krijt</w>":10962,"blast</w>":10963,"blaft</w>":10964,"bladje</w>":10965,"blauwi":10966,"bladerde</w>":10967,"blad-":10968,"black-":10969,"oond</w>":10970,"briekster":10971,"bijde":10972,"bijzonder":10973,"bijkans</w>":10974,"bijvoorbeeld</w>":10975,"vrijdag</w>":10976,"vrijsters</w>":10977,"blijken</w>":10978,"daarin</w>":10979,"daarms</w>":10980,"wolven</w>":10981,"wollt</w>":10982,"wolkje</w>":10983,"wollte</w>":10984,"achterin</w>":10985,"achtereen</w>":10986,"achteruit</w>":10987,"achterdocht</w>":10988,"achterhaim</w>":10989,"achterpoten</w>":10990,"achtervolgden</w>":10991,"brokken</w>":10992,"brochte</w>":10993,"broers</w>":10994,"brokkel":10995,"isel</w>":10996,"hoak</w>":10997,"hoaver</w>":10998,"hoasteg</w>":10999,"hoageldoor":11000,"roek</w>":11001,"roes</w>":11002,"roemen</w>":11003,"roege</w>":11004,"proats</w>":11005,"proatte</w>":11006,"drukker</w>":11007,"drukten</w>":11008,"druppels</w>":11009,"drumpel</w>":11010,"drupgezeur</w>":11011,"jando":11012,"janko</w>":11013,"jankende</w>":11014,"jantin":11015,"jansens</w>":11016,"jantien":11017,"janslot</w>":11018,"janskruud</w>":11019,"rout</w>":11020,"geluk-":11021,"krap</w>":11022,"kracht":11023,"krassen</w>":11024,"krappe</w>":11025,"sei":11026,"segen</w>":11027,"seum</w>":11028,"sebiet</w>":11029,"sedeltje</w>":11030,"sextan":11031,"blies</w>":11032,"blieken</w>":11033,"kook":11034,"kooie</w>":11035,"koopt</w>":11036,"gram":11037,"grappen</w>":11038,"graske</w>":11039,"grauwt</w>":11040,"grapje</w>":11041,"grabbelt</w>":11042,"potje</w>":11043,"potte</w>":11044,"postkantoor</w>":11045,"potsier":11046,"vrags</w>":11047,"vrauen</w>":11048,"linker":11049,"mina</w>":11050,"minst</w>":11051,"minnen</w>":11052,"minoa</w>":11053,"minuten</w>":11054,"minkeltje</w>":11055,"wenkt</w>":11056,"wenkte</w>":11057,"wensken</w>":11058,"wenakker</w>":11059,"wenkbra":11060,"av'koat</w>":11061,"weerom":11062,"weerzien</w>":11063,"weerzain</w>":11064,"weerum</w>":11065,"weerboar</w>":11066,"weeromme</w>":11067,"weerwikker</w>":11068,"rechtse</w>":11069,"rechtbank</w>":11070,"dsman</w>":11071,"dsels</w>":11072,"rijp</w>":11073,"rijen</w>":11074,"rijpt</w>":11075,"rijkste</w>":11076,"pee</w>":11077,"pesten</w>":11078,"petrole":11079,"petrus</w>":11080,"noach</w>":11081,"noaber":11082,"noabers</w>":11083,"sleur</w>":11084,"sleurt</w>":11085,"ontzag</w>":11086,"ontnu":11087,"ontvangen</w>":11088,"ontvlucht</w>":11089,"ontwieken</w>":11090,"ontwikkel":11091,"ontgelden</w>":11092,"haike</w>":11093,"haitte</w>":11094,"haiko</w>":11095,"donzen</w>":11096,"donders</w>":11097,"donzeg</w>":11098,"donzig</w>":11099,"halverwege</w>":11100,"voamen</w>":11101,"voaders</w>":11102,"stok":11103,"stokt</w>":11104,"stove</w>":11105,"stoffer</w>":11106,"baasje</w>":11107,"baasj":11108,"duiven</w>":11109,"duizend":11110,"trouwe</w>":11111,"trouwerij</w>":11112,"caten</w>":11113,"capt":11114,"catechis":11115,"capaci":11116,"fatteg</w>":11117,"speels</w>":11118,"speuld</w>":11119,"speelt</w>":11120,"vredige</w>":11121,"feur</w>":11122,"fess":11123,"kreet</w>":11124,"pere</w>":11125,"perg</w>":11126,"pertjes</w>":11127,"perbaiern</w>":11128,"geleverd</w>":11129,"zonet</w>":11130,"zondago":11131,"schift</w>":11132,"schichtig</w>":11133,"kriebelde</w>":11134,"nerij</w>":11135,"nerke</w>":11136,"buil</w>":11137,"buiïge</w>":11138,"bloemen":11139,"bloeid</w>":11140,"bloempot</w>":11141,"bloeisel</w>":11142,"deln</w>":11143,"delingen</w>":11144,"bizunder</w>":11145,"bidvat</w>":11146,"bilair</w>":11147,"zunlicht":11148,"zundags</w>":11149,"zundoags":11150,"spraak</w>":11151,"schoer</w>":11152,"schoven</w>":11153,"schoft</w>":11154,"schokte</w>":11155,"schofte</w>":11156,"schoddert</w>":11157,"schoteltje</w>":11158,"bruien</w>":11159,"bruggen</w>":11160,"brult</w>":11161,"bruine</w>":11162,"bruust</w>":11163,"bruun</w>":11164,"brugle":11165,"bruukt</w>":11166,"brulof</w>":11167,"draf</w>":11168,"draden</w>":11169,"drafje</w>":11170,"trozen":11171,"trosro":11172,"goten</w>":11173,"godde":11174,"godver":11175,"goddank</w>":11176,"goeree</w>":11177,"kortste</w>":11178,"korrel</w>":11179,"kornui":11180,"ruide</w>":11181,"ruip'n</w>":11182,"tax":11183,"tap</w>":11184,"taik</w>":11185,"tast</w>":11186,"tasten</w>":11187,"tappen</w>":11188,"tammo</w>":11189,"draaier</w>":11190,"draaimolen</w>":11191,"herder":11192,"herders</w>":11193,"hervor":11194,"herbergen</w>":11195,"beestje</w>":11196,"eindeloze</w>":11197,"igst</w>":11198,"sseld</w>":11199,"sselde</w>":11200,"deeg</w>":11201,"deest</w>":11202,"köst</w>":11203,"köster</w>":11204,"marten</w>":11205,"marsen</w>":11206,"braien</w>":11207,"brabbe":11208,"vief":11209,"vienen</w>":11210,"straode</w>":11211,"dorst</w>":11212,"dorrel</w>":11213,"dorpsweg</w>":11214,"dorpse</w>":11215,"dorsvloer</w>":11216,"groots</w>":11217,"grootske</w>":11218,"grootskheid</w>":11219,"griezel</w>":11220,"grieko</w>":11221,"menselijke</w>":11222,"slikken</w>":11223,"slicht-weg</w>":11224,"alsdat</w>":11225,"alsmaar</w>":11226,"bord</w>":11227,"borden</w>":11228,"borsten</w>":11229,"borstkas</w>":11230,"borstrok</w>":11231,"mplicht</w>":11232,"bootje</w>":11233,"booije</w>":11234,"bant</w>":11235,"bandie":11236,"bangelijk</w>":11237,"bannerij</w>":11238,"woarop</w>":11239,"mello</w>":11240,"melkengeertruud</w>":11241,"schup</w>":11242,"schulen</w>":11243,"schuchter</w>":11244,"schuuns</w>":11245,"hiep</w>":11246,"hielen</w>":11247,"waiders</w>":11248,"waidakker</w>":11249,"koffer</w>":11250,"does</w>":11251,"doeven</w>":11252,"doeke</w>":11253,"doekne":11254,"doekjes</w>":11255,"doezend":11256,"hijte</w>":11257,"hijtte</w>":11258,"stoeven</w>":11259,"stoekt</w>":11260,"weggaat</w>":11261,"wegsturen</w>":11262,"weglokken</w>":11263,"bruier":11264,"snô":11265,"snoet":11266,"snurkte</w>":11267,"verschoot</w>":11268,"verscholen</w>":11269,"verschijnen</w>":11270,"verschoond</w>":11271,"zorg":11272,"zorgelijk</w>":11273,"morsen</w>":11274,"zomoar</w>":11275,"meiske</w>":11276,"meisjes":11277,"driever</w>":11278,"drieste</w>":11279,"drieën</w>":11280,"vaôr":11281,"vaôders</w>":11282,"blikt</w>":11283,"blikje</w>":11284,"blikkelijk</w>":11285,"geesten</w>":11286,"geessie</w>":11287,"tegens":11288,"tegenop</w>":11289,"tegenkwam</w>":11290,"tegenkomen</w>":11291,"tegenspar":11292,"joag</w>":11293,"joazeker</w>":11294,"joapke</w>":11295,"zint</w>":11296,"zinken</w>":11297,"zinkens</w>":11298,"zingzan":11299,"stelbaar</w>":11300,"steloos</w>":11301,"stelling</w>":11302,"vlaigen</w>":11303,"vlamt</w>":11304,"vlaôt</w>":11305,"staarfte</w>":11306,"staarveling</w>":11307,"vertoe":11308,"doarop</w>":11309,"doarmit</w>":11310,"doarbie</w>":11311,"koeze</w>":11312,"koekel":11313,"koegang</w>":11314,"koekjes</w>":11315,"koeper</w>":11316,"koekalf</w>":11317,"koeienbak</w>":11318,"toaie</w>":11319,"toavel":11320,"toakel</w>":11321,"zender</w>":11322,"zending</w>":11323,"zenuwen</w>":11324,"neuden</w>":11325,"misbaar</w>":11326,"misverstand</w>":11327,"bieden</w>":11328,"biekomen</w>":11329,"stieken</w>":11330,"stiever</w>":11331,"stiekelen</w>":11332,"stiekels</w>":11333,"toeze</w>":11334,"toekomt</w>":11335,"toekwam</w>":11336,"toegaat</w>":11337,"toestaan</w>":11338,"toestan":11339,"toekomst</w>":11340,"toeterde</w>":11341,"toekomst":11342,"zeegat</w>":11343,"deurzet</w>":11344,"deurpost</w>":11345,"schougkoamer</w>":11346,"ellenne</w>":11347,"ellendigst</w>":11348,"jeuden</w>":11349,"jeuzel</w>":11350,"kwoaje</w>":11351,"kwoaden</w>":11352,"kwoajong</w>":11353,"kwoajongens</w>":11354,"louder</w>":11355,"ofsloagen</w>":11356,"ofhaauwen</w>":11357,"oftroefd</w>":11358,"ploag</w>":11359,"ploagd</w>":11360,"plaag</w>":11361,"plaagt</w>":11362,"ftjal":11363,"krupt</w>":11364,"krukje</w>":11365,"kruinen</w>":11366,"kruus":11367,"roaken</w>":11368,"roazen</w>":11369,"roadsel</w>":11370,"vim</w>":11371,"vissen</w>":11372,"vivat</w>":11373,"viol-":11374,"viking</w>":11375,"zwarts</w>":11376,"zwartbont</w>":11377,"dant</w>":11378,"danst</w>":11379,"dankt</w>":11380,"danste</w>":11381,"dansend</w>":11382,"leugen":11383,"leufd</w>":11384,"brandden</w>":11385,"brandende</w>":11386,"dreugen</w>":11387,"dreugt</w>":11388,"dreumde</w>":11389,"muze</w>":11390,"mutsen</w>":11391,"sir":11392,"sist</w>":11393,"sip-":11394,"woonden</w>":11395,"woonplaats</w>":11396,"gespaard</w>":11397,"gespuis</w>":11398,"welk</w>":11399,"welzeker</w>":11400,"welvoart</w>":11401,"grondeloze</w>":11402,"raais</w>":11403,"raadsel</w>":11404,"train</w>":11405,"trage</w>":11406,"traude</w>":11407,"traônen</w>":11408,"haôr":11409,"dringende</w>":11410,"drinkers</w>":11411,"baiert</w>":11412,"baisten</w>":11413,"sugen</w>":11414,"sussen</w>":11415,"suzend</w>":11416,"sufferd</w>":11417,"suvvert</w>":11418,"somber":11419,"somber</w>":11420,"verkeeren</w>":11421,"verkeer'n</w>":11422,"sag</w>":11423,"sachte</w>":11424,"sakker":11425,"sap-":11426,"sappige</w>":11427,"schaam":11428,"schaats</w>":11429,"schaamt</w>":11430,"provinci":11431,"proteste":11432,"profess":11433,"ammo</w>":11434,"plei":11435,"plekje</w>":11436,"plettert</w>":11437,"daipte</w>":11438,"daiper</w>":11439,"daipzinnig</w>":11440,"gevoar</w>":11441,"gevaal</w>":11442,"gevaalt</w>":11443,"bronzen</w>":11444,"rent":11445,"rens</w>":11446,"rennen</w>":11447,"renger</w>":11448,"rondge":11449,"ronduit</w>":11450,"rondedans</w>":11451,"vormt</w>":11452,"gebod</w>":11453,"nut</w>":11454,"nusten</w>":11455,"nuchter</w>":11456,"nuttig</w>":11457,"smui":11458,"vergeit</w>":11459,"vergetel":11460,"hailmoal</w>":11461,"hailendal</w>":11462,"laôken":11463,"krioe":11464,"krigs</w>":11465,"kerkdeur</w>":11466,"kerkdeure</w>":11467,"kerkvoo":11468,"aiweg</w>":11469,"aiko</w>":11470,"aibels</w>":11471,"eikte</w>":11472,"eitjo</w>":11473,"löd":11474,"löt</w>":11475,"löcht</w>":11476,"löpt</w>":11477,"lerige</w>":11478,"lerske</w>":11479,"toun</w>":11480,"toukomen</w>":11481,"toutjes</w>":11482,"touhollen</w>":11483,"toukomst</w>":11484,"daglicht</w>":11485,"dagoavend</w>":11486,"kk'":11487,"kkien</w>":11488,"kkeld</w>":11489,"peerstaal</w>":11490,"zaakt</w>":11491,"zaakje</w>":11492,"zaakjes</w>":11493,"zaailen</w>":11494,"zaaierde</w>":11495,"keuze</w>":11496,"keuterboer</w>":11497,"avondt</w>":11498,"avondeten</w>":11499,"knip":11500,"knikken</w>":11501,"knikkend</w>":11502,"knittje</w>":11503,"knivvelt</w>":11504,"snikte</w>":11505,"zömmer</w>":11506,"zönde</w>":11507,"ongedoan</w>":11508,"ongeschoo":11509,"ongemak</w>":11510,"ongeschikt</w>":11511,"ongetemde</w>":11512,"ongezellig</w>":11513,"schoam</w>":11514,"hoogop":11515,"hoogler":11516,"doomdies</w>":11517,"eeuw'":11518,"eeffies</w>":11519,"gittje</w>":11520,"giteerd</w>":11521,"gisteravond</w>":11522,"glazen</w>":11523,"gladweg</w>":11524,"glaskes</w>":11525,"glassien</w>":11526,"vaarten</w>":11527,"zoegen</w>":11528,"zoesen</w>":11529,"zoekend</w>":11530,"licht-":11531,"lichtste</w>":11532,"lichtjes</w>":11533,"lichtpunt</w>":11534,"lichtpun":11535,"lichtkring</w>":11536,"sloag</w>":11537,"sloaven":11538,"kousen</w>":11539,"koune</w>":11540,"koubak</w>":11541,"koukspan</w>":11542,"tief</w>":11543,"tiemen</w>":11544,"tiedverdrie":11545,"stoute</w>":11546,"versta</w>":11547,"verstopte</w>":11548,"verstomt</w>":11549,"verstard</w>":11550,"opgezette</w>":11551,"opgetrokken</w>":11552,"opgeblazen</w>":11553,"opgestroopt</w>":11554,"opgekropt</w>":11555,"opgezopen</w>":11556,"opgeborgen</w>":11557,"opgegroeid</w>":11558,"opgewekter</w>":11559,"luut</w>":11560,"luudjes</w>":11561,"naarbinnen</w>":11562,"naarms</w>":11563,"pik":11564,"pitten</w>":11565,"pikte</w>":11566,"roos</w>":11567,"rookt</w>":11568,"rooier</w>":11569,"roodste</w>":11570,"vougen</w>":11571,"voudig</w>":11572,"vouwt</w>":11573,"zörgt</w>":11574,"zörge</w>":11575,"zörgde</w>":11576,"oogjes</w>":11577,"oogleden</w>":11578,"verlangens</w>":11579,"dijen</w>":11580,"pandplicht":11581,"panieker":11582,"pannekouk</w>":11583,"pankoukspan</w>":11584,"slodder":11585,"slogan":11586,"sloffen</w>":11587,"sloerig</w>":11588,"sloffe</w>":11589,"stroalen</w>":11590,"trouwden</w>":11591,"jeuzelend</w>":11592,"ambts":11593,"gouds</w>":11594,"gouds":11595,"goudje</w>":11596,"gouvernement</w>":11597,"grel</w>":11598,"groete</w>":11599,"boerenvrouw</w>":11600,"boerenleven</w>":11601,"boerenploats</w>":11602,"boerenmeu":11603,"boerenvrouwen</w>":11604,"boerenkool</w>":11605,"gooi</w>":11606,"karkas</w>":11607,"ogenblikkelijk</w>":11608,"psalmen</w>":11609,"psaalms</w>":11610,"zuite</w>":11611,"zuigen</w>":11612,"zuidwen":11613,"gebaar</w>":11614,"geboar</w>":11615,"geboorte</w>":11616,"hoesken</w>":11617,"hoeswaark</w>":11618,"begunden</w>":11619,"barstte</w>":11620,"barqu":11621,"heup</w>":11622,"heuvels</w>":11623,"oom-kristjaô":11624,"gestoord</w>":11625,"vakbond</w>":11626,"blinde</w>":11627,"blinde":11628,"blindens</w>":11629,"stuurden</w>":11630,"huisvrouw</w>":11631,"dunde</w>":11632,"dunne</w>":11633,"dunner</w>":11634,"hinlopen</w>":11635,"knapt</w>":11636,"knakken</w>":11637,"knapjes</w>":11638,"onbewu":11639,"onbeschreven</w>":11640,"onbelemmer":11641,"kruist</w>":11642,"doodslag</w>":11643,"doodmui</w>":11644,"doodaanzeg":11645,"gerei</w>":11646,"gereden</w>":11647,"gerecht":11648,"gerekend</w>":11649,"verschrikker</w>":11650,"verschrikkel":11651,"polze</w>":11652,"polsen</w>":11653,"tweemaal</w>":11654,"tweesprong</w>":11655,"vlies</w>":11656,"vliem</w>":11657,"hengst</w>":11658,"hendrik</w>":11659,"hengsels</w>":11660,"schreeuwde</w>":11661,"fietste</w>":11662,"jipping</w>":11663,"mond":11664,"monsterd</w>":11665,"smeden</w>":11666,"smeken</w>":11667,"smeert</w>":11668,"smeerd</w>":11669,"smekend</w>":11670,"smederij</w>":11671,"smeugel</w>":11672,"smeulende</w>":11673,"snoert</w>":11674,"snokken</w>":11675,"snokte</w>":11676,"snot-":11677,"snokkend</w>":11678,"snottert</w>":11679,"ausheer</w>":11680,"audi</w>":11681,"konst</w>":11682,"piep":11683,"piepen</w>":11684,"piepen":11685,"piep-":11686,"pieterke</w>":11687,"pele</w>":11688,"pelde</w>":11689,"pelzij":11690,"pelvlais</w>":11691,"snapte</w>":11692,"snaoken</w>":11693,"smoen":11694,"dammen</w>":11695,"dammee</w>":11696,"dammers</w>":11697,"damhek</w>":11698,"dammengoa</w>":11699,"christus</w>":11700,"allerlei</w>":11701,"allermiss":11702,"allerellendigst</w>":11703,"allerlichtste</w>":11704,"raize</w>":11705,"trillende</w>":11706,"kwamstoe</w>":11707,"eigenschap</w>":11708,"eigenwijs</w>":11709,"bulks</w>":11710,"buldog</w>":11711,"joun</w>":11712,"joug</w>":11713,"kusje</w>":11714,"noor-":11715,"noordoo":11716,"noordenwind</w>":11717,"tje-vuur</w>":11718,"vreesde</w>":11719,"vlogt</w>":11720,"vlokje</w>":11721,"vlokki":11722,"oaventuur</w>":11723,"antwoorden</w>":11724,"antwoordt</w>":11725,"onvermie":11726,"onvermij":11727,"onverveerd</w>":11728,"onveranderd</w>":11729,"verdraitig</w>":11730,"aarbaids":11731,"broeit</w>":11732,"broeken</w>":11733,"broeder":11734,"broeier":11735,"bred</w>":11736,"breggen</w>":11737,"breuk</w>":11738,"kalven</w>":11739,"kalmte</w>":11740,"kalveren</w>":11741,"premie</w>":11742,"t-de-":11743,"t-janskruud</w>":11744,"heurs</w>":11745,"heur'n</w>":11746,"heurent</w>":11747,"regenen</w>":11748,"diender</w>":11749,"gulden":11750,"körtste</w>":11751,"miezer":11752,"miemeren</w>":11753,"siem</w>":11754,"siep</w>":11755,"siever</w>":11756,"sietje</w>":11757,"siemen</w>":11758,"siebrand</w>":11759,"siebolt</w>":11760,"siepelvlais</w>":11761,"tjelijf</w>":11762,"tjarko</w>":11763,"daôle</w>":11764,"daôverde</w>":11765,"daômelde</w>":11766,"daôrveur</w>":11767,"veertig</w>":11768,"grist</w>":11769,"klink</w>":11770,"klinkdicht</w>":11771,"scheuvel</w>":11772,"tilt</w>":11773,"tillen</w>":11774,"zwijg</w>":11775,"stompen</w>":11776,"stompt</w>":11777,"stommel":11778,"stompe</w>":11779,"gewrichten</w>":11780,"levende</w>":11781,"allende</w>":11782,"allenneg</w>":11783,"schoond</w>":11784,"schoonzu":11785,"schoonmaken</w>":11786,"schoonzoon</w>":11787,"schoondochters</w>":11788,"fleur":11789,"fleuren</w>":11790,"fleurt</w>":11791,"flesken</w>":11792,"fleurig</w>":11793,"ggevers</w>":11794,"glimmend</w>":11795,"kaalverij</w>":11796,"bedden":11797,"kraabke</w>":11798,"kraabt</w>":11799,"kloze</w>":11800,"klokke":11801,"kloddert</w>":11802,"koopman":11803,"koopwaar</w>":11804,"koopwoar</w>":11805,"kooplui</w>":11806,"frommelt</w>":11807,"fruitbomen</w>":11808,"guie</w>":11809,"gutste</w>":11810,"gusteroavend</w>":11811,"gloei</w>":11812,"gloeien</w>":11813,"gloepend</w>":11814,"muil</w>":11815,"muidighaid</w>":11816,"naaste</w>":11817,"naakte</w>":11818,"pool</w>":11819,"pooten</w>":11820,"vijand</w>":11821,"zwieren</w>":11822,"zwierf</w>":11823,"zwierder</w>":11824,"zwaart'n</w>":11825,"stennen</w>":11826,"deukt</w>":11827,"spinsel</w>":11828,"spinnewiel</w>":11829,"börge":11830,"börgen</w>":11831,"goaten</w>":11832,"goale</w>":11833,"kniepen</w>":11834,"knieps":11835,"kniepkou":11836,"kniepertjes</w>":11837,"sjiek</w>":11838,"sjorren</w>":11839,"waalkant</w>":11840,"verloor</w>":11841,"prootten</w>":11842,"strot</w>":11843,"stroo</w>":11844,"strospieren</w>":11845,"aôfgunst</w>":11846,"aôfgescheiden</w>":11847,"fluister</w>":11848,"fluist'ren</w>":11849,"talent</w>":11850,"woelen</w>":11851,"woelt</w>":11852,"woedend</w>":11853,"zwies</w>":11854,"zwienen</w>":11855,"zwiepte</w>":11856,"stopwoord</w>":11857,"stoppels</w>":11858,"schuil</w>":11859,"nachtwiend</w>":11860,"nachthemd</w>":11861,"nachtvorst</w>":11862,"nachtpon</w>":11863,"lampen</w>":11864,"lammert</w>":11865,"vrucht":11866,"boenpost</w>":11867,"liefje</w>":11868,"liefke</w>":11869,"liefdes</w>":11870,"liefrente</w>":11871,"werktijd</w>":11872,"werkhuis</w>":11873,"werkkracht</w>":11874,"werkpoten</w>":11875,"primula</w>":11876,"bloumpot</w>":11877,"schemeruur</w>":11878,"schemerige</w>":11879,"schemerdonker</w>":11880,"flikt</w>":11881,"flikkert</w>":11882,"flierefluiten</w>":11883,"knik</w>":11884,"knop</w>":11885,"mombakkes</w>":11886,"momente":11887,"paars</w>":11888,"paartjes</w>":11889,"heiden":11890,"heiligt</w>":11891,"heids":11892,"heern</w>":11893,"heerenk</w>":11894,"heerem":11895,"schurft</w>":11896,"scholden</w>":11897,"scholders</w>":11898,"schollt</w>":11899,"schrob</w>":11900,"veenarbeiders</w>":11901,"votgaait</w>":11902,"bounpost</w>":11903,"aardappelloof</w>":11904,"aardappelbult</w>":11905,"evens</w>":11906,"felnum":11907,"put</w>":11908,"puul":11909,"visken</w>":11910,"visch</w>":11911,"zókse</w>":11912,"zeuvende</w>":11913,"zeupkes</w>":11914,"schoemt</w>":11915,"schild</w>":11916,"schrikte</w>":11917,"schriften</w>":11918,"vrundlek</w>":11919,"zachtzinnig</w>":11920,"zachthandig</w>":11921,"drankjes</w>":11922,"drankwet</w>":11923,"mitnander</w>":11924,"gelovig</w>":11925,"kantine</w>":11926,"benaud</w>":11927,"uitgestoken</w>":11928,"uitgebloeid</w>":11929,"schoenen":11930,"fladder":11931,"plons</w>":11932,"ploeg</w>":11933,"ploetert</w>":11934,"plompt</w>":11935,"planten</w>":11936,"planten":11937,"plantsoen</w>":11938,"snijden</w>":11939,"snijscheppen</w>":11940,"bedrui":11941,"bedroog":11942,"beloond</w>":11943,"scherend</w>":11944,"scherenslie":11945,"spoukt</w>":11946,"vrouwtjes</w>":11947,"vrouwlu</w>":11948,"vrouwluu</w>":11949,"kovver</w>":11950,"troos</w>":11951,"troosten</w>":11952,"troosteloze</w>":11953,"troost'n</w>":11954,"winterg</w>":11955,"winterweelde</w>":11956,"schelpje</w>":11957,"schel-hoog</w>":11958,"jaôr":11959,"jaôgen</w>":11960,"jaôrs</w>":11961,"binnenkwam</w>":11962,"schippersgeslacht</w>":11963,"boaien</w>":11964,"boantje</w>":11965,"cir":11966,"foeken</w>":11967,"foeko</w>":11968,"foeteren</w>":11969,"forser</w>":11970,"kaart</w>":11971,"kaarft</w>":11972,"kiendertied</w>":11973,"pennen</w>":11974,"sintels</w>":11975,"sting":11976,"stink":11977,"stinkert</w>":11978,"störm":11979,"verdroo":11980,"verdraag</w>":11981,"verdroag</w>":11982,"verdronken</w>":11983,"verdrongen</w>":11984,"naôm</w>":11985,"bovenop</w>":11986,"spottend</w>":11987,"sprei</w>":11988,"spreiden</w>":11989,"spreuk</w>":11990,"trienko</w>":11991,"strijdvaar":11992,"burgemee":11993,"appeltje</w>":11994,"appelboom</w>":11995,"appelbloei</w>":11996,"evert</w>":11997,"gore</w>":11998,"gierde</w>":11999,"gierend</w>":12000,"gierig</w>":12001,"mijst</w>":12002,"nuimt</w>":12003,"pijters</w>":12004,"sunne":12005,"wupt</w>":12006,"wupko</w>":12007,"wubbo</w>":12008,"stippen</w>":12009,"stikke</w>":12010,"stiften</w>":12011,"beelden</w>":12012,"beseffel":12013,"lachende</w>":12014,"lube</w>":12015,"lubbe</w>":12016,"lubbo</w>":12017,"beroven</w>":12018,"zummerlaand</w>":12019,"zummermiddag":12020,"gangk</w>":12021,"gansch</w>":12022,"hilko</w>":12023,"hilbrand</w>":12024,"kwispelen</w>":12025,"klanten</w>":12026,"tink</w>":12027,"taôl</w>":12028,"taôkel</w>":12029,"stoal</w>":12030,"stoapel</w>":12031,"stoareg-":12032,"bello</w>":12033,"belkwinter":12034,"betekende</w>":12035,"betekenen</w>":12036,"begrippen</w>":12037,"speuls</w>":12038,"speulgoud</w>":12039,"speulgoed</w>":12040,"speulerij</w>":12041,"zomerland</w>":12042,"levenslang</w>":12043,"levensgrote</w>":12044,"levenskleur</w>":12045,"levensdoagen</w>":12046,"levensbesef</w>":12047,"levenslust</w>":12048,"bèrre</w>":12049,"bèrsp":12050,"conie</w>":12051,"comman":12052,"combin":12053,"commiezen</w>":12054,"commercie":12055,"exaô":12056,"existen":12057,"exaudi</w>":12058,"glaasjes</w>":12059,"knol":12060,"plukt</w>":12061,"plukken</w>":12062,"soeien</w>":12063,"soest</w>":12064,"soepen":12065,"soeiken</w>":12066,"stuiven</w>":12067,"gediend</w>":12068,"westerwol":12069,"westerkant</w>":12070,"schieten</w>":12071,"schielijk</w>":12072,"neergezet</w>":12073,"neerslachtige</w>":12074,"aangebracht</w>":12075,"aangekleed</w>":12076,"aangestoken</w>":12077,"triste</w>":12078,"triomfer":12079,"scheidt</w>":12080,"sneeuwstorm</w>":12081,"sneeuwvlokken</w>":12082,"cock</w>":12083,"cogna":12084,"dörsen</w>":12085,"dörpsweg</w>":12086,
[...]
